xxunk	0
xxpad	0
xxbos	0
xxfld	0
xxmaj	0
xxup	0
xxrep	0
xxwrep	0
<unk>	0
▁	-0.933669
▁.	-3.66369
▁,	-3.88127
▁der	-4.01485
▁die	-4.2388
▁und	-4.3669
▁in	-4.60654
▁&'	-4.72466
n	-4.75609
en	-4.94547
▁von	-5.03713
s	-5.21403
▁den	-5.26497
▁im	-5.26862
▁)	-5.30773
▁(	-5.30781
-	-5.37941
▁des	-5.39267
▁mit	-5.43641
▁das	-5.44851
er	-5.46507
.	-5.54131
▁wurde	-5.6804
▁zu	-5.69286
▁als	-5.70961
▁dem	-5.72725
▁ein	-5.76277
▁auf	-5.77098
▁ist	-5.79194
▁eine	-5.82655
▁für	-5.88717
▁an	-5.94415
▁sich	-5.94722
e	-6.01014
▁nach	-6.04426
▁war	-6.06842
▁er	-6.1182
▁auch	-6.17996
▁aus	-6.18899
▁=	-6.20563
▁am	-6.22523
▁bei	-6.26164
▁sie	-6.30744
▁bis	-6.33053
▁“	-6.41028
„	-6.41552
es	-6.51036
▁einer	-6.53517
▁zum	-6.53853
▁durch	-6.5737
▁:	-6.57432
▁werden	-6.68666
▁nicht	-6.73696
▁über	-6.74516
▁sind	-6.74552
▁wird	-6.77437
▁einem	-6.78536
r	-6.78586
▁–	-6.79645
▁zur	-6.81883
▁oder	-6.85605
▁unter	-6.89709
▁um	-6.89729
a	-6.93075
▁es	-6.96118
▁einen	-6.96206
▁wurden	-7.00363
m	-7.01262
▁vor	-7.03004
t	-7.03345
▁dass	-7.10458
▁ab	-7.12218
▁wie	-7.12905
▁@,@	-7.16046
▁/	-7.22393
▁;	-7.23055
▁seine	-7.23075
▁jahr	-7.24317
▁seit	-7.26389
▁nur	-7.27725
▁noch	-7.31891
▁vom	-7.34051
▁diese	-7.36596
▁so	-7.37647
▁sein	-7.40291
▁jahre	-7.41003
▁zwei	-7.41975
▁zwischen	-7.42178
▁aber	-7.42559
▁seiner	-7.42653
▁sowie	-7.4293
▁dieser	-7.44941
▁hatte	-7.45052
▁waren	-7.48371
▁hat	-7.51105
in	-7.51253
▁eines	-7.58827
▁da	-7.59032
i	-7.6456
▁gegen	-7.6583
▁ersten	-7.68202
▁jedoch	-7.68335
us	-7.69832
▁jahren	-7.70523
▁stadt	-7.73601
▁wieder	-7.74357
▁zeit	-7.7569
▁man	-7.7592
▁1	-7.78707
▁drei	-7.79467
▁konnte	-7.79549
▁während	-7.79918
▁etwa	-7.8252
▁2	-7.82957
▁später	-7.84304
o	-7.86409
▁*	-7.8724
dem	-7.87393
▁ihre	-7.8786
▁teil	-7.88318
▁heute	-7.89507
▁kann	-7.89568
▁erste	-7.91525
▁mehr	-7.91532
▁wo	-7.92078
▁beim	-7.93446
▁bereits	-7.95655
▁dort	-7.97474
▁b	-7.9951
▁seinen	-8.00535
▁de	-8.0069
▁seinem	-8.01013
▁leben	-8.02788
▁deutschen	-8.04018
l	-8.04053
▁geschichte	-8.04141
▁%	-8.07096
▁1.	-8.09195
▁gemeinde	-8.09343
d	-8.09369
▁liegt	-8.10273
▁ende	-8.1033
▁dann	-8.11188
k	-8.1229
▁ihm	-8.12434
▁hier	-8.14633
▁17	-8.14757
▁kam	-8.15437
▁haben	-8.15527
▁of	-8.15859
▁dabei	-8.17249
mai	-8.17831
▁damit	-8.18097
▁neben	-8.18373
▁ihr	-8.18586
▁anderen	-8.18777
▁alle	-8.20065
▁können	-8.20892
▁3	-8.22093
▁keine	-8.22237
▁weitere	-8.23587
▁ihrer	-8.25787
▁zusammen	-8.25809
▁vier	-8.26911
august	-8.27678
▁zweiten	-8.29164
jahrhundert	-8.29787
▁deutschland	-8.30887
▁gibt	-8.31611
▁zurück	-8.32162
▁the	-8.32363
▁diesem	-8.33155
märz	-8.3321
januar	-8.33277
▁ihn	-8.33855
▁5	-8.34126
ung	-8.34575
den	-8.34578
juli	-8.34752
oktober	-8.35217
▁gab	-8.35618
▁beiden	-8.36254
juni	-8.3698
▁km	-8.3752
▁sehr	-8.38024
april	-8.38181
▁dessen	-8.38293
▁15	-8.3832
september	-8.38399
▁erhielt	-8.39603
▁erst	-8.40142
▁mehrere	-8.40352
y	-8.41946
▁selbst	-8.41958
▁viele	-8.42527
▁zunächst	-8.42792
de	-8.42867
dezember	-8.42925
berg	-8.43053
november	-8.4649
halb	-8.47649
straße	-8.47776
▁einige	-8.49587
▁allem	-8.49785
▁andere	-8.50324
▁bekannt	-8.50395
▁berlin	-8.50763
▁ebenfalls	-8.51038
▁dieses	-8.51059
▁ort	-8.51182
▁schon	-8.51371
▁16	-8.5244
▁ihren	-8.53166
▁4	-8.53398
▁was	-8.53446
▁neue	-8.53567
▁sollte	-8.53745
durch	-8.53834
▁deutsche	-8.53923
▁2010	-8.54686
▁neuen	-8.55009
▁prozent	-8.55847
▁bzw	-8.5618
▁saison	-8.56793
▁namen	-8.56942
▁befindet	-8.57225
um	-8.57585
▁_	-8.57803
▁mitglied	-8.57814
▁große	-8.58414
februar	-8.58433
▁ohne	-8.5853
▁neu	-8.59122
▁u	-8.59131
te	-8.59241
▁worden	-8.59586
▁2009	-8.60193
▁allerdings	-8.60356
▁nachdem	-8.60839
▁wenn	-8.61082
▁2006	-8.6142
▁st	-8.61811
▁großen	-8.6199
mann	-8.62531
▁film	-8.63798
▁kirche	-8.63841
▁begann	-8.6387
▁formula	-8.64006
▁immer	-8.6408
▁v	-8.64286
▁2008	-8.64957
z	-8.65493
▁anderem	-8.65813
▁stand	-8.66391
▁weiter	-8.66807
▁0	-8.67664
▁erstmals	-8.6816
▁fand	-8.68174
▁rund	-8.70124
▁wegen	-8.70655
▁ver	-8.70748
c	-8.70774
▁sohn	-8.71092
▁18	-8.71145
▁2007	-8.71463
▁aufgrund	-8.71625
le	-8.72446
▁außerdem	-8.72524
▁fünf	-8.72971
▁ob	-8.73008
▁menschen	-8.73876
▁bezeichnet	-8.73967
jahrhunderts	-8.73979
▁statt	-8.74126
mannschaft	-8.74285
▁familie	-8.74682
haus	-8.75603
▁sondern	-8.7576
▁nahm	-8.768
▁national	-8.77042
▁6	-8.77609
▁z	-8.77655
▁gegründet	-8.77718
▁universität	-8.77934
▁19.	-8.77981
al	-8.78213
▁besteht	-8.78249
▁dazu	-8.78814
▁gehörte	-8.79457
▁2005	-8.79478
▁zahlreiche	-8.79647
▁10	-8.80159
el	-8.80676
▁spielte	-8.80724
▁führte	-8.81135
▁gewann	-8.81827
▁new	-8.82666
▁sei	-8.83462
▁2004	-8.83979
▁2000	-8.84183
▁county	-8.84472
▁ging	-8.84477
▁schloss	-8.84572
wohl	-8.85134
g	-8.85147
▁hatten	-8.85217
▁bau	-8.85273
▁14	-8.8582
▁bevölkerung	-8.8614
▁genannt	-8.86474
▁inner	-8.86826
▁2011	-8.87086
▁insgesamt	-8.8714
▁trat	-8.87202
▁welche	-8.87248
▁gehört	-8.87359
▁danach	-8.8743
▁2.	-8.87622
▁ii	-8.87728
▁deutscher	-8.88363
platz	-8.88483
▁je	-8.88527
▁nun	-8.89175
▁weiteren	-8.89956
▁soll	-8.90125
▁diesen	-8.90637
stein	-8.90763
▁7	-8.91043
▁20	-8.91331
▁art	-8.91344
▁seines	-8.91455
h	-8.91879
▁12	-8.91947
▁ca	-8.92613
land	-8.92633
▁denen	-8.92758
▁1990	-8.93831
bach	-8.93893
bahn	-8.94677
▁kinder	-8.95344
▁land	-8.9558
▁dies	-8.95667
▁letzten	-8.95752
▁8	-8.96086
▁viel	-8.9613
▁anfang	-8.96145
▁erfolgte	-8.96337
▁friedrich	-8.96421
▁kurz	-8.9645
▁ihrem	-8.96903
▁13	-8.96939
▁tod	-8.97384
▁einwohner	-8.97451
▁titel	-8.97926
▁20.	-8.98897
▁wobei	-8.98942
▁schließlich	-8.99124
▁sechs	-8.99145
meisterschaft	-8.9933
b	-8.99428
ten	-8.99621
▁1945	-8.99721
▁verwendet	-9.00204
▁2012	-9.00381
▁platz	-9.00383
▁mal	-9.00492
▁meter	-9.00612
▁band	-9.00678
▁pro	-9.00695
▁insbesondere	-9.01011
▁welt	-9.01023
u	-9.01173
▁doch	-9.01237
p	-9.0126
em	-9.01298
stadt	-9.0145
▁musste	-9.01894
tal	-9.01929
▁erhalten	-9.01942
v	-9.02322
ing	-9.02358
▁usa	-9.02456
▁arbeitete	-9.02613
sch	-9.02644
▁2003	-9.0272
on	-9.02911
▁gewählt	-9.03594
▁2014	-9.03925
▁johann	-9.04195
▁meist	-9.04377
▁oft	-9.04863
▁18.	-9.05162
▁erreichte	-9.05205
▁personen	-9.05828
▁steht	-9.05928
▁2001	-9.05984
▁2002	-9.06734
an	-9.06766
▁blieb	-9.06849
▁karl	-9.07268
▁folgenden	-9.0753
▁anschließend	-9.07587
▁2013	-9.07615
▁besonders	-9.07666
man	-9.07725
▁gemeinsam	-9.07895
▁kilometer	-9.07981
▁wasser	-9.08192
▁jeweils	-9.08299
▁beispiel	-9.08591
▁unternehmen	-9.08687
▁fast	-9.09283
▁errichtet	-9.09307
2	-9.09411
▁d	-9.09517
▁gilt	-9.09612
▁9	-9.10057
▁ursprünglich	-9.10085
▁la	-9.10472
▁verschiedene	-9.10485
▁einsatz	-9.1065
▁daher	-9.10808
1	-9.11245
▁stark	-9.11437
▁3.	-9.11467
▁alten	-9.11492
▁davon	-9.11522
▁eingesetzt	-9.11596
▁frauen	-9.11906
ischen	-9.12039
▁mitte	-9.12288
▁also	-9.12409
▁damals	-9.12553
▁bedeutung	-9.13027
▁weltkrieg	-9.13087
▁übernahm	-9.13148
ge	-9.13736
▁musik	-9.13873
▁&&	-9.13932
▁könig	-9.14111
▁1970	-9.14233
▁landes	-9.14334
▁darauf	-9.14357
▁1980	-9.14554
▁beide	-9.14772
▁form	-9.15427
▁gebiet	-9.15638
▁entstand	-9.15824
▁h	-9.15878
▁verschiedenen	-9.16006
▁führt	-9.16122
▁tätig	-9.16211
▁c	-9.16232
▁15.	-9.16267
▁studierte	-9.16268
▁erneut	-9.16378
▁grund	-9.1662
und	-9.16725
▁ließ	-9.1674
▁frau	-9.16869
▁name	-9.17428
welt	-9.17521
▁ins	-9.18547
▁16.	-9.18883
▁17.	-9.19141
f	-9.19221
▁gut	-9.19226
gesellschaft	-9.19238
▁politische	-9.19319
▁meisten	-9.19724
▁millionen	-9.198
▁2015	-9.19906
▁groß	-9.2005
▁wechselte	-9.20189
burg	-9.20303
▁11	-9.20315
feld	-9.2056
▁30	-9.20567
▁partei	-9.2067
▁tochter	-9.20893
▁lang	-9.21172
▁finden	-9.21699
▁4.	-9.21902
▁muss	-9.21908
▁100	-9.21963
is	-9.22018
▁ober	-9.22163
▁rolle	-9.22336
▁norden	-9.22394
▁sowohl	-9.2252
▁vater	-9.22587
▁be	-9.23078
▁rahmen	-9.23291
▁beispielsweise	-9.23361
▁weil	-9.23412
▁gegenüber	-9.23618
▁wilhelm	-9.2363
▁allen	-9.23723
▁13.	-9.24179
▁einzige	-9.24439
▁zweite	-9.245
▁1999	-9.24577
▁häufig	-9.24672
ich	-9.24673
▁1960	-9.25139
▁heutigen	-9.2514
keit	-9.25501
▁heinrich	-9.25974
▁europa	-9.26309
▁erschien	-9.26372
▁14.	-9.26388
▁münchen	-9.26394
ka	-9.26628
selben	-9.26637
et	-9.2686
▁karriere	-9.27032
▁gebäude	-9.2719
▁ehemaligen	-9.27399
ton	-9.2751
▁lange	-9.27759
▁nord	-9.28082
▁hans	-9.28811
▁eigenen	-9.29626
▁nördlich	-9.30246
▁wien	-9.30506
▁darunter	-9.30658
▁frankreich	-9.30734
▁entwicklung	-9.30741
▁12.	-9.30746
▁teilweise	-9.30792
▁österreich	-9.30888
▁beginn	-9.30972
dorf	-9.31352
▁süden	-9.31428
▁findet	-9.31572
▁zwar	-9.31588
der	-9.31708
▁früher	-9.31769
▁paris	-9.3178
▁somit	-9.32102
▁darüber	-9.32359
gruppe	-9.32477
4	-9.32482
▁bestand	-9.32551
▁1998	-9.32605
▁hinter	-9.33812
au	-9.34014
▁john	-9.34112
▁folge	-9.3452
▁region	-9.34533
▁5.	-9.34686
▁2016	-9.34715
▁50	-9.34886
▁starb	-9.34934
▁kommt	-9.3495
▁amt	-9.34963
▁kein	-9.35093
▁zuvor	-9.35101
▁verein	-9.35312
▁hin	-9.35382
▁and	-9.35404
▁1950	-9.35444
na	-9.35471
▁sommer	-9.35543
▁hoch	-9.35753
▁jahres	-9.35936
▁peter	-9.36223
▁burg	-9.3633
▁ihnen	-9.36376
▁spielen	-9.36568
wissenschaftlich	-9.36699
▁trotz	-9.36746
schule	-9.36759
▁sieben	-9.36795
lässt	-9.36886
▁alter	-9.36954
▁möglich	-9.37683
▁6.	-9.38027
▁lag	-9.38217
▁paul	-9.38492
▁spiel	-9.38743
▁album	-9.3882
▁10.	-9.39005
▁entstanden	-9.39096
▁un	-9.39103
▁arbeit	-9.3911
▁lassen	-9.39138
3	-9.39553
▁eigene	-9.39696
▁1997	-9.39786
▁lage	-9.39805
▁rechts	-9.39848
▁letzte	-9.40026
▁kamen	-9.40174
▁werk	-9.40195
▁setzte	-9.40245
▁gehören	-9.40293
▁york	-9.4043
▁genutzt	-9.40478
▁kleine	-9.40703
▁zog	-9.40707
bau	-9.40801
▁bereich	-9.40895
▁habe	-9.40899
▁ziel	-9.40911
zeit	-9.40952
▁außer	-9.41044
be	-9.41525
▁krieg	-9.41564
▁direkt	-9.41595
▁familien	-9.41691
▁11.	-9.41704
▁1996	-9.41767
▁westen	-9.41801
▁französischen	-9.41939
▁gründete	-9.41956
▁chr	-9.42104
▁landkreis	-9.42169
▁deutlich	-9.4223
▁größten	-9.42311
ch	-9.425
▁erreicht	-9.42715
heim	-9.4292
▁1994	-9.43013
▁dafür	-9.43082
▁hohen	-9.43106
▁osten	-9.43196
ko	-9.43278
▁regierung	-9.43284
▁folgte	-9.43419
▁folgende	-9.43544
▁hinaus	-9.43601
▁zehn	-9.43634
▁7.	-9.43803
▁west	-9.43856
▁kaiser	-9.43945
▁9.	-9.44202
see	-9.44208
▁erster	-9.44313
▁zeigt	-9.44444
▁aller	-9.44497
▁sitz	-9.44521
▁acht	-9.4455
▁alt	-9.44762
▁staaten	-9.44766
os	-9.44775
▁dar	-9.44816
▁kleinen	-9.4519
x	-9.45254
▁deutsch	-9.45673
▁betrieb	-9.45724
▁erwähnt	-9.45957
▁8.	-9.46217
▁1992	-9.46556
▁stellte	-9.46648
kirche	-9.46704
▁gelang	-9.46942
▁25	-9.46959
▁höhe	-9.46983
▁ebenso	-9.4699
▁befand	-9.47004
▁kunst	-9.47194
geschichte	-9.47198
▁1995	-9.47564
re	-9.47903
▁gemeinden	-9.47951
▁ehe	-9.48171
▁2017	-9.48576
▁entwickelte	-9.48712
▁gründung	-9.49177
▁veröffentlicht	-9.49265
▁1991	-9.49432
▁weiterhin	-9.49703
▁gleichzeitig	-9.49766
▁25.	-9.4979
▁einigen	-9.49914
sten	-9.50076
klasse	-9.50359
▁betrug	-9.5056
▁größte	-9.50643
ar	-9.50754
▁befinden	-9.50875
▁seite	-9.50949
▁40	-9.50968
ja	-9.5105
da	-9.51059
▁kultur	-9.5122
▁richtung	-9.51294
▁london	-9.51348
▁schweiz	-9.51578
▁machte	-9.51808
▁general	-9.52201
▁ge	-9.52339
▁benannt	-9.52477
ta	-9.53081
▁kloster	-9.5319
▁franz	-9.53261
hof	-9.53293
ur	-9.53375
▁1989	-9.53401
▁macht	-9.53403
▁ddr	-9.53555
▁zusätzlich	-9.5356
▁handelt	-9.53615
▁maria	-9.53628
▁1993	-9.53704
▁etwas	-9.5386
▁international	-9.54406
▁mutter	-9.54416
▁[	-9.54557
▁30.	-9.54673
▁]	-9.54677
▁ganz	-9.54955
st	-9.54995
▁insel	-9.55166
no	-9.55545
▁siehe	-9.5581
▁hamburg	-9.55965
▁gruppe	-9.56387
▁euro	-9.56494
▁olympische	-9.56807
bereich	-9.56904
▁truppen	-9.56907
as	-9.57203
▁nähe	-9.57246
▁provinz	-9.57281
▁östlich	-9.57281
▁besuchte	-9.57448
▁21.	-9.57499
▁weniger	-9.57503
▁bildet	-9.57522
5	-9.57749
▁aufgenommen	-9.57762
▁sehen	-9.57854
▁entwickelt	-9.58372
▁kreis	-9.58387
▁strecke	-9.58408
▁beträgt	-9.58464
▁veröffentlichte	-9.58784
▁gleichen	-9.58797
▁mitglieder	-9.5892
▁stehen	-9.59445
▁dorf	-9.5984
▁university	-9.59987
▁bundes	-9.6012
▁weg	-9.60198
▁georg	-9.60295
technik	-9.60336
▁1933	-9.60427
system	-9.60561
▁österreichische	-9.60601
▁internationalen	-9.60903
▁besitz	-9.60927
▁ludwig	-9.61047
▁bezeichnung	-9.61167
▁solche	-9.61234
or	-9.61262
▁alte	-9.61405
▁geboren	-9.61499
▁1972	-9.61528
ma	-9.61555
▁begriff	-9.61598
▁iii	-9.61798
▁liegen	-9.61841
▁sogar	-9.62025
▁kommen	-9.62066
▁südlich	-9.62126
▁haupt	-9.62319
ke	-9.62526
▁tag	-9.62591
▁gebaut	-9.62619
▁wappen	-9.62707
▁regel	-9.63197
▁see	-9.6335
▁theater	-9.63408
ia	-9.63488
▁bruder	-9.63503
▁dritten	-9.63546
meisterschaften	-9.63555
▁schrieb	-9.63854
▁geht	-9.63909
▁literatur	-9.64069
▁22.	-9.64089
▁heraus	-9.64392
▁stellt	-9.64636
▁erfolg	-9.64715
▁gewesen	-9.64732
▁haus	-9.64842
amerikanischen	-9.64845
▁daraufhin	-9.64985
ver	-9.65113
▁g	-9.65178
aus	-9.65264
la	-9.65453
▁welches	-9.65486
immt	-9.65802
▁vereinigte	-9.65959
▁europäischen	-9.66006
▁nachfolger	-9.66083
▁michael	-9.66112
▁1987	-9.66122
▁köln	-9.66177
▁buch	-9.66387
ig	-9.66659
▁bahnhof	-9.66877
▁spieler	-9.66923
▁ehemalige	-9.66955
entwicklung	-9.67278
zahl	-9.67737
▁berliner	-9.67883
▁nieder	-9.67906
universität	-9.67985
se	-9.68009
▁politik	-9.68253
raum	-9.68279
spiel	-9.68347
▁f	-9.68366
▁carl	-9.68482
▁1930	-9.68764
▁1944	-9.68953
▁wenig	-9.69054
▁1988	-9.69124
ie	-9.69396
▁du	-9.69433
▁lediglich	-9.69467
▁ag	-9.69549
▁1974	-9.69595
▁nahe	-9.6962
▁san	-9.69644
▁team	-9.69655
▁1920	-9.70188
▁31.	-9.70216
▁24.	-9.70324
▁vertrag	-9.70353
▁stadtteil	-9.70452
▁frankfurt	-9.70757
▁1939	-9.70849
▁schlacht	-9.70944
▁erreichen	-9.71
▁thomas	-9.7122
▁entfernt	-9.71383
▁frei	-9.71459
▁26.	-9.71546
▁28.	-9.71553
▁verwaltungs	-9.71615
▁laut	-9.71645
▁27.	-9.7172
▁verbunden	-9.71833
form	-9.7184
▁arbeiten	-9.71844
▁23.	-9.71952
▁müssen	-9.72134
th	-9.72405
▁kehrte	-9.72434
▁professor	-9.72546
▁stammt	-9.72582
bar	-9.72601
▁heutige	-9.72639
▁herrschaft	-9.7278
▁ost	-9.72797
▁hohe	-9.72846
innen	-9.72894
▁1986	-9.72931
▁wahl	-9.73262
▁1969	-9.73476
▁1975	-9.7363
▁jugend	-9.73772
▁1985	-9.73791
▁ernst	-9.73838
▁umfasst	-9.73846
at	-9.73889
ische	-9.73913
werk	-9.73959
▁einmal	-9.74198
▁politiker	-9.7421
▁deshalb	-9.74292
▁60	-9.74299
▁1984	-9.75056
▁1938	-9.75134
▁fort	-9.75387
▁robert	-9.75393
▁reich	-9.75395
wissenschaften	-9.75429
▁damaligen	-9.75477
▁weit	-9.75585
▁ihres	-9.75639
▁bisher	-9.75656
liga	-9.7578
▁wichtigste	-9.7608
▁diente	-9.76096
▁linie	-9.76266
▁arten	-9.76291
▁her	-9.76412
▁entsprechend	-9.76585
▁cm	-9.7699
vorsitzender	-9.77101
▁1940	-9.77141
▁martin	-9.77163
▁bevor	-9.77165
▁studium	-9.77194
▁29.	-9.77255
gemeinschaft	-9.77353
▁britischen	-9.77482
▁lebten	-9.77618
▁ausbildung	-9.77856
▁zuge	-9.77955
▁hätte	-9.78017
▁wenige	-9.78045
▁1973	-9.78087
▁...	-9.78097
▁1968	-9.78325
▁teile	-9.78524
▁klein	-9.78583
▁französische	-9.78584
▁°	-9.7865
▁italien	-9.78927
▁armee	-9.7899
▁beteiligt	-9.79
band	-9.79048
▁bald	-9.79126
▁1946	-9.79179
it	-9.79273
isch	-9.79299
lang	-9.79406
▁gegensatz	-9.79444
▁beste	-9.79543
▁1983	-9.79572
ra	-9.7961
preis	-9.79642
to	-9.79774
▁schweizer	-9.79812
▁unterschiedlich	-9.79899
▁per	-9.799
▁verwendung	-9.79948
▁1979	-9.79964
▁eher	-9.79974
▁verheiratet	-9.80052
▁dr	-9.80083
▁otto	-9.80113
kreis	-9.80118
29	-9.80189
▁werke	-9.80203
w	-9.80288
tor	-9.80332
▁eröffnet	-9.80355
▁republik	-9.80359
▁1971	-9.80529
▁einzelnen	-9.80758
▁fc	-9.8077
6	-9.80866
▁1978	-9.80885
▁gleich	-9.81057
▁1982	-9.81099
▁bad	-9.81137
▁internationale	-9.81292
▁heiratete	-9.81313
▁mitarbeiter	-9.81316
wagen	-9.81318
▁ernannt	-9.81466
rseits	-9.81547
▁spielt	-9.81615
▁männer	-9.81653
▁1976	-9.81785
▁stelle	-9.81873
▁besitzt	-9.81882
ed	-9.81938
▁verbindung	-9.81951
gebiet	-9.82019
amerikanischer	-9.8216
▁wirtschaft	-9.82176
▁gmbh	-9.82497
▁ortsteil	-9.82529
▁hauptsächlich	-9.83041
▁boden	-9.83077
j	-9.83182
▁natur	-9.83195
▁frühen	-9.8324
▁präsident	-9.83322
▁gesamte	-9.83325
▁bestehen	-9.83643
▁leipzig	-9.83748
▁reihe	-9.83753
▁vermutlich	-9.83782
▁england	-9.83895
ne	-9.83897
▁johannes	-9.84242
amerikanische	-9.84336
▁größere	-9.8441
▁führen	-9.8443
▁fest	-9.8457
▁daneben	-9.84845
▁besondere	-9.84913
▁1981	-9.85134
▁wichtige	-9.8522
▁wiener	-9.85259
▁ähnlich	-9.85421
mit	-9.85608
▁jeder	-9.85681
▁späteren	-9.85748
▁bild	-9.86158
▁kirchen	-9.86179
▁sport	-9.86295
▁ersetzt	-9.86467
ismus	-9.86562
▁1964	-9.86619
▁mittel	-9.8664
▁brachte	-9.86664
▁bayern	-9.86786
▁sachsen	-9.86807
▁erfolgt	-9.87052
▁technische	-9.87116
ring	-9.8724
im	-9.87262
▁langen	-9.87299
ler	-9.87412
▁verfügung	-9.87451
▁jüdische	-9.8759
▁süd	-9.87595
wissenschaft	-9.8781
▁uhr	-9.87835
▁wollte	-9.87931
▁roman	-9.87983
bauten	-9.8803
▁absolvierte	-9.88059
▁fall	-9.8808
▁machen	-9.88132
▁moderne	-9.88152
▁24	-9.88208
rat	-9.8825
▁christian	-9.88479
▁will	-9.88723
▁city	-9.88813
▁einwohnern	-9.88902
▁sogenannte	-9.88933
▁1977	-9.89129
▁rhein	-9.89133
▁schnell	-9.89141
▁liste	-9.89156
▁bestimmte	-9.89271
▁folgen	-9.89278
▁joseph	-9.89397
▁1967	-9.89581
▁wahrscheinlich	-9.89599
buch	-9.89696
▁vollständig	-9.89874
▁seiten	-9.90056
gen	-9.90085
▁reichs	-9.90133
▁recht	-9.90225
▁hälfte	-9.90234
lauf	-9.90259
▁fußball	-9.903
▁raum	-9.90534
▁1961	-9.90563
▁1965	-9.90564
▁1966	-9.90855
▁1949	-9.90865
▁zeitpunkt	-9.90874
▁einfluss	-9.90877
ro	-9.90999
▁inzwischen	-9.91071
meister	-9.91101
lich	-9.91274
▁kampf	-9.91288
▁sprache	-9.91328
weg	-9.9137
co	-9.91433
▁sollen	-9.91504
▁erfolgreich	-9.91519
▁1956	-9.91838
▁bürgermeister	-9.91989
▁selten	-9.92041
▁großer	-9.92269
▁relativ	-9.92311
▁di	-9.92421
zu	-9.92433
▁knapp	-9.92486
▁grenze	-9.92594
arbeiten	-9.92599
▁wirtschafts	-9.92657
▁neun	-9.92671
▁1948	-9.92703
bis	-9.92801
▁städte	-9.92827
▁1962	-9.92922
▁1952	-9.92967
8	-9.92991
▁winter	-9.93007
▁1963	-9.9306
▁zuletzt	-9.93117
▁bilden	-9.93163
▁hand	-9.9319
▁hermann	-9.93291
haupt	-9.934
▁firma	-9.93495
▁van	-9.93581
veröffentlichung	-9.93783
los	-9.93863
wald	-9.93886
▁mm	-9.93936
▁weltweit	-9.9396
▁rom	-9.94305
▁nie	-9.94409
▁museum	-9.94517
▁1943	-9.94528
ei	-9.94532
▁p	-9.94574
▁ausgezeichnet	-9.94789
▁westlich	-9.94992
▁erschienen	-9.95146
▁schauspieler	-9.95171
▁verließ	-9.95203
trägt	-9.95238
▁verlor	-9.95257
▁übernommen	-9.95287
▁arbeits	-9.95321
▁gold	-9.95338
▁geographie	-9.95359
recht	-9.95384
▁baden	-9.95478
▁italienische	-9.95557
▁soldaten	-9.95648
▁heiligen	-9.95655
▁richard	-9.95719
▁jungen	-9.95783
▁würde	-9.95933
▁geprägt	-9.9596
▁fluss	-9.95972
hin	-9.9603
son	-9.96089
▁1942	-9.9615
▁kaum	-9.96194
▁regelmäßig	-9.96235
so	-9.96413
▁sah	-9.96413
▁produktion	-9.96424
▁dritte	-9.96475
li	-9.96594
ter	-9.9662
10	-9.96627
▁straßen	-9.96712
▁verkauft	-9.96793
▁jede	-9.96972
▁1958	-9.97091
▁kg	-9.97153
▁80	-9.97166
▁üblich	-9.97232
▁metern	-9.97237
▁david	-9.97286
▁anzahl	-9.97305
▁1941	-9.97318
▁park	-9.97363
▁mussten	-9.97395
▁1934	-9.97401
7	-9.97555
▁serie	-9.97572
▁holz	-9.97622
▁hielt	-9.97653
▁schule	-9.97727
▁wiederum	-9.97742
▁daten	-9.97762
▁namens	-9.97778
▁aktiv	-9.97837
▁dresden	-9.97844
▁wald	-9.98055
▁w	-9.9806
ungen	-9.9814
▁russische	-9.98153
▁2018	-9.98155
▁durchgeführt	-9.98201
▁sogenannten	-9.98212
▁league	-9.98247
ab	-9.98432
serie	-9.98526
▁schüler	-9.98633
betrieb	-9.98737
▁nächsten	-9.98904
ba	-9.98905
▁landwirtschaft	-9.98955
▁ausschließlich	-9.9904
▁römisch	-9.99091
am	-9.99111
▁königs	-9.99333
▁zusammenhang	-9.99466
▁darin	-9.99487
unternehmen	-9.99492
iert	-9.9951
▁bayerische	-9.99566
▁militär	-9.99608
▁gebildet	-9.99633
▁hilfe	-9.99726
▁stil	-9.99874
▁bestimmt	-9.99922
▁schriftsteller	-10.0021
▁gefunden	-10.0024
▁1947	-10.0027
▁22	-10.003
▁graf	-10.0031
▁1953	-10.0035
▁luft	-10.0047
▁galt	-10.0058
▁mindestens	-10.0061
▁lebens	-10.0062
▁1955	-10.0078
▁schwer	-10.008
▁bildete	-10.0089
ation	-10.0108
▁bekam	-10.0116
▁überwiegend	-10.0122
dollar	-10.0123
▁preußische	-10.0132
▁fläche	-10.0142
▁for	-10.0144
führung	-10.015
▁co	-10.0152
▁entlang	-10.0156
▁zerstört	-10.0157
▁künstler	-10.0172
▁offiziell	-10.0183
▁zwölf	-10.0192
▁enthält	-10.0194
▁1954	-10.0197
ende	-10.02
▁1936	-10.0202
▁besten	-10.0203
▁unterstützung	-10.0208
kopf	-10.0217
▁gemeinderat	-10.0218
▁gesamt	-10.0219
▁betrieben	-10.022
art	-10.0221
schaft	-10.0228
▁schwarz	-10.0233
▁erbaut	-10.0235
▁geführt	-10.0236
▁jährlich	-10.0237
▁1959	-10.0245
28	-10.0259
karriere	-10.0263
linie	-10.0295
▁1918	-10.0302
▁heißt	-10.0305
▁neuer	-10.031
▁einzel	-10.0317
▁politisch	-10.0319
▁vertreter	-10.0333
▁max	-10.0341
▁markt	-10.0342
▁1919	-10.0342
ist	-10.035
▁<	-10.0351
▁gattung	-10.0361
▁grafen	-10.0364
▁1957	-10.0365
für	-10.0375
ga	-10.0386
▁bischof	-10.0387
▁bietet	-10.0395
▁anschluss	-10.0407
▁umgebung	-10.0419
fall	-10.0444
▁200	-10.0445
▁stellen	-10.0447
▁öffentlichen	-10.0447
▁vertreten	-10.0459
einkommen	-10.0476
▁gesamten	-10.0478
▁medien	-10.049
▁funktion	-10.051
▁spiele	-10.0516
▁fiel	-10.0545
▁gestellt	-10.0562
▁beendete	-10.0577
württemberg	-10.0588
jährige	-10.0592
▁dagegen	-10.0598
▁indem	-10.0607
▁japan	-10.0633
▁william	-10.0634
▁erzielte	-10.0647
geschwindigkeit	-10.0652
erweise	-10.0655
▁verfügt	-10.0655
il	-10.0669
di	-10.0684
▁folgten	-10.07
▁staats	-10.0712
▁james	-10.0712
pfalz	-10.0712
▁gehörten	-10.0714
jahren	-10.0715
▁länge	-10.073
▁trainer	-10.0741
▁anderer	-10.0745
▁weitgehend	-10.075
▁genau	-10.0759
▁tage	-10.0761
▁verloren	-10.0767
sa	-10.0767
▁1951	-10.0776
▁genommen	-10.0788
▁polen	-10.0792
▁1935	-10.0797
▁dennoch	-10.0814
▁1937	-10.0822
▁legte	-10.0824
▁rot	-10.0841
▁welcher	-10.0843
zentrum	-10.0865
▁belegte	-10.0866
▁juden	-10.0879
▁alexander	-10.088
leitung	-10.0882
▁90	-10.0884
▁allein	-10.089
▁erwarb	-10.0893
zugleich	-10.0895
tage	-10.0897
▁lebte	-10.0914
▁stuttgart	-10.0923
▁eingeführt	-10.0931
▁dient	-10.0932
▁mittler	-10.0934
▁außen	-10.0949
▁kanton	-10.0953
▁stieg	-10.0965
▁hinzu	-10.0968
ger	-10.0986
▁heimat	-10.1002
einander	-10.1002
▁j	-10.1005
anlage	-10.101
▁wort	-10.1011
▁verläuft	-10.1016
▁auftrag	-10.1022
▁gesellschaft	-10.1025
▁schutz	-10.103
▁produziert	-10.1033
16	-10.1036
▁tour	-10.1038
▁zusammenarbeit	-10.1042
▁george	-10.1044
▁klassische	-10.1046
▁nr	-10.1068
▁gruppen	-10.107
▁main	-10.1073
sche	-10.1083
▁dienst	-10.109
▁historische	-10.1091
▁schiff	-10.1092
mer	-10.1094
▁besaß	-10.1097
▁eingestellt	-10.1098
▁weiterer	-10.1119
▁durchschnitts	-10.1139
▁lebt	-10.115
▁eltern	-10.1163
chen	-10.1164
wert	-10.1173
▁gleichnamige	-10.1175
▁leicht	-10.1176
▁projekt	-10.1182
▁gemacht	-10.1188
▁monate	-10.1198
▁zunehmend	-10.1201
▁verliehen	-10.1203
▁unmittelbar	-10.1206
▁21	-10.1211
▁70	-10.1225
▁beginnt	-10.1238
▁bürger	-10.1269
ach	-10.1271
ca	-10.1272
▁jean	-10.1276
▁versuchte	-10.128
▁wochen	-10.1282
ierung	-10.129
bus	-10.1315
schen	-10.1317
▁ehemaliger	-10.1319
▁mehrfach	-10.1325
verwaltung	-10.1348
▁walter	-10.1357
▁gerade	-10.1373
▁laufe	-10.1379
horn	-10.1379
industrie	-10.1379
▁hauptstadt	-10.1395
▁oben	-10.1402
▁+	-10.1417
▁vorhanden	-10.1426
▁bekannte	-10.1434
▁1932	-10.1454
▁verkehr	-10.1454
▁folgt	-10.1455
ski	-10.146
ion	-10.1472
▁herbst	-10.148
▁englischen	-10.15
▁beschreibung	-10.1501
stand	-10.1503
▁iv	-10.1514
führer	-10.1516
▁zentrum	-10.1527
▁weiß	-10.1527
meist	-10.1544
weile	-10.1556
▁bedeutet	-10.1562
▁möglichkeit	-10.1565
▁sprach	-10.157
▁forschungs	-10.1574
▁ländern	-10.1578
durchschnittlich	-10.1589
▁verbreitung	-10.1605
▁finale	-10.1611
▁größeren	-10.1617
division	-10.1622
▁historischen	-10.1632
é	-10.1643
▁eisenbahn	-10.1652
▁position	-10.1662
richtung	-10.1669
▁unterstützt	-10.1677
▁wirkte	-10.1679
▁startete	-10.1683
arbeit	-10.169
fläche	-10.171
brücke	-10.1715
▁1928	-10.1717
▁1900	-10.1722
▁basis	-10.1726
▁union	-10.1727
heit	-10.1727
anlagen	-10.1742
▁herzog	-10.1743
▁druck	-10.1746
film	-10.1752
▁china	-10.1764
ste	-10.1765
▁leitung	-10.1769
arten	-10.1772
▁rudolf	-10.1797
▁hof	-10.1805
▁evangelische	-10.1806
gruppen	-10.1807
dienst	-10.181
▁beschrieben	-10.1825
▁regie	-10.1829
▁polizei	-10.183
▁junge	-10.1833
▁geworden	-10.1834
▁1914	-10.1838
pe	-10.1838
▁wuchs	-10.1887
▁1929	-10.1897
ort	-10.1908
▁weißen	-10.1916
▁zürich	-10.1933
▁neues	-10.1935
▁öffentliche	-10.1939
ard	-10.1939
verband	-10.1949
▁verlauf	-10.1954
▁leiter	-10.1954
westfalen	-10.1967
lager	-10.1967
mar	-10.197
lin	-10.1972
▁hierbei	-10.198
▁vereins	-10.198
▁erweitert	-10.2
ling	-10.2017
▁19	-10.2022
verkehr	-10.2038
▁südlichen	-10.2046
▁sinne	-10.2059
▁stück	-10.2072
▁spanien	-10.2077
▁river	-10.2077
▁minuten	-10.2078
▁lehrer	-10.2079
▁ha	-10.2083
schutz	-10.2083
▁hochschule	-10.2086
armee	-10.209
bundesliga	-10.2091
▁handlung	-10.2107
▁fahrzeuge	-10.2111
▁genannten	-10.2114
amt	-10.2116
gebäude	-10.213
ä	-10.2138
▁gegeben	-10.2138
▁enthalten	-10.2142
▁bewohner	-10.215
wand	-10.2152
▁angeboten	-10.2158
▁aufgelöst	-10.2168
▁wir	-10.2169
▁hintergrund	-10.2175
▁darstellung	-10.2175
▁josef	-10.2177
▁verlassen	-10.2178
85	-10.2185
bewegung	-10.2188
▁französisch	-10.2191
ley	-10.2194
▁wäre	-10.2196
▁hervor	-10.2199
▁abschluss	-10.2211
▁römische	-10.2221
▁vergleich	-10.2247
▁doppel	-10.2249
▁seien	-10.2251
06	-10.2256
▁zeigen	-10.2264
versammlung	-10.2278
▁geplant	-10.2289
me	-10.2292
▁königreich	-10.2298
▁mark	-10.231
▁militärische	-10.2324
▁hergestellt	-10.2333
▁hingegen	-10.2347
by	-10.2356
▁großbritannien	-10.236
▁charles	-10.2365
▁mittels	-10.237
▁jeweiligen	-10.2378
▁text	-10.2378
▁bedeutende	-10.2388
jahre	-10.239
27	-10.2409
falls	-10.2409
▁post	-10.2409
▁europäische	-10.241
▁spd	-10.2419
▁nutzung	-10.2426
ki	-10.2428
▁1925	-10.2437
▁version	-10.2447
holz	-10.2465
▁gebracht	-10.2472
▁setzt	-10.2482
ow	-10.2483
▁verbreitet	-10.2484
hausen	-10.2487
▁aufgaben	-10.2488
her	-10.249
sehenswürdigkeit	-10.2491
go	-10.2491
▁unterhalb	-10.2502
▁kritik	-10.2503
▁hannover	-10.251
politik	-10.2523
▁zweiter	-10.2536
▁geschlossen	-10.2537
▁akademie	-10.2538
▁höchste	-10.255
▁sc	-10.2555
seite	-10.2556
▁anteil	-10.256
lage	-10.2579
▁«	-10.2579
▁albert	-10.2587
▁allgemeinen	-10.2589
▁zuerst	-10.2592
▁versucht	-10.2598
▁herren	-10.26
programm	-10.2607
wissenschaftler	-10.2614
▁aufbau	-10.2616
▁all	-10.2617
ht	-10.263
pa	-10.2632
▁westlichen	-10.2633
▁staffel	-10.2638
▁?	-10.264
▁23	-10.2645
▁gelände	-10.2651
▁volkszählung	-10.2654
▁radio	-10.2656
▁ehren	-10.2663
▁stammen	-10.2673
ul	-10.268
▁körper	-10.2683
‚	-10.2694
▁saint	-10.2697
▁start	-10.2701
▁silber	-10.2709
▁hessen	-10.2716
▁35	-10.272
▁ergebnis	-10.2733
▁american	-10.2745
97	-10.2747
▁1924	-10.2751
ieren	-10.2757
▁1931	-10.2765
▁angelegt	-10.2766
▁geld	-10.2769
▁world	-10.2776
▁englisch	-10.2778
▁parallel	-10.2778
▁staat	-10.2778
▁roten	-10.2784
▁entdeckt	-10.2788
▁anna	-10.2793
gang	-10.2794
▁energie	-10.2796
▁sodass	-10.2798
93	-10.2799
▁thema	-10.2805
▁dahin	-10.2822
▁höchsten	-10.2824
▁45	-10.2825
▁gewinnen	-10.2835
▁staatliche	-10.2838
▁wolfgang	-10.2839
▁britische	-10.2844
▁moskau	-10.2853
▁frage	-10.2865
▁auto	-10.2871
stellen	-10.2875
sieg	-10.2876
▁sowjetische	-10.2881
unterschiedliche	-10.2881
▁herkunft	-10.2883
▁tragen	-10.2884
schließlich	-10.2886
▁kind	-10.2887
ti	-10.2891
▁1927	-10.2901
▁gehen	-10.2906
▁könnte	-10.2908
stelle	-10.2914
▁jazz	-10.2927
▁russland	-10.2929
▁opfer	-10.2941
▁usd	-10.2947
lichen	-10.2956
▁wirken	-10.2957
▁entspricht	-10.2959
vertrag	-10.296
▁unternehmens	-10.2961
▁wenigen	-10.2961
▁modell	-10.2963
forschung	-10.2964
▁bekannten	-10.2972
▁philipp	-10.2976
igen	-10.2979
ak	-10.2983
sport	-10.2989
▁aufgabe	-10.3003
▁linken	-10.301
▁leitete	-10.301
▁berufen	-10.3016
▁zeigte	-10.3025
▁eingerichtet	-10.3025
verein	-10.3028
▁oberen	-10.3032
▁papst	-10.3032
▁endete	-10.3035
▁kurze	-10.3037
▁1912	-10.3041
museum	-10.3042
▁studien	-10.3044
▁dargestellt	-10.305
organisation	-10.3053
ni	-10.3056
mal	-10.3057
▁tätigkeit	-10.3067
enden	-10.3068
▁zentral	-10.3082
▁1926	-10.3097
▁jedes	-10.3104
▁krieges	-10.3106
▁führten	-10.3111
▁gründen	-10.3129
▁zentimeter	-10.3139
verfahren	-10.3141
▁jan	-10.3145
▁weltkriegs	-10.315
zeichen	-10.3154
▁schul	-10.3157
▁gingen	-10.3161
▁south	-10.3166
titel	-10.3166
eck	-10.3167
▁anders	-10.3167
▁tatsächlich	-10.3178
blatt	-10.3183
markt	-10.3186
▁infrastruktur	-10.319
▁benutzt	-10.3201
rennen	-10.3215
▁weist	-10.3219
hilfe	-10.3223
▁united	-10.3227
▁frühjahr	-10.3229
▁adolf	-10.3237
▁errichtete	-10.3237
▁1910	-10.3243
98	-10.3246
▁frank	-10.3257
ien	-10.3259
▁trug	-10.3261
▁besser	-10.3264
▁bekannteste	-10.3266
▁nacht	-10.327
ha	-10.3274
▁philosophie	-10.3274
75	-10.3276
▁verantwortlich	-10.3278
▁gar	-10.328
▁school	-10.3282
die	-10.3295
▁1922	-10.3296
halle	-10.3302
▁abschnitt	-10.3307
▁verkehrs	-10.331
▁offizielle	-10.331
ss	-10.3311
▁teilen	-10.3314
▁unabhängig	-10.3318
▁fuhr	-10.3319
▁studenten	-10.3325
▁grundlage	-10.3337
zug	-10.3363
ebene	-10.3371
▁ausnahme	-10.3378
▁gute	-10.3386
▁ortes	-10.339
▁volks	-10.3391
▁1921	-10.3395
▁früh	-10.3397
▁bahnstrecke	-10.34
▁verwaltung	-10.3403
▁zählt	-10.3425
▁älteste	-10.3425
▁college	-10.3428
▁1923	-10.3435
▁zuschauer	-10.3438
ität	-10.3438
▁stimmen	-10.3443
▁kleiner	-10.3448
▁umbenannt	-10.3449
bank	-10.345
▁geschaffen	-10.3451
▁gelegenen	-10.3464
▁gegründete	-10.3465
▁einzelne	-10.3472
▁turm	-10.3477
▁ent	-10.3482
▁privat	-10.349
▁betrachtet	-10.3491
▁rheinland	-10.3497
▁breite	-10.3504
▁aufstieg	-10.3516
▁65	-10.3529
▁angaben	-10.3529
▁kosten	-10.3532
wasser	-10.3533
▁übertragen	-10.3537
▁quellen	-10.3544
▁polnische	-10.3545
weise	-10.3545
99	-10.3551
▁500	-10.3555
ik	-10.356
▁arbeitet	-10.3562
▁einführung	-10.3564
▁entstehung	-10.357
▁weiteres	-10.357
▁kriegs	-10.3576
▁rang	-10.3577
kultur	-10.3583
wegen	-10.3583
ministerium	-10.3585
▁themen	-10.3586
▁eigentlich	-10.3595
▁betriebs	-10.3604
▁spanische	-10.3606
turm	-10.3607
ham	-10.3617
▁schweden	-10.3628
▁elf	-10.3639
▁zeitschrift	-10.364
▁mittelalter	-10.3644
weiler	-10.3644
▁jetzt	-10.3658
▁institut	-10.3666
72	-10.3672
63	-10.3674
▁person	-10.3691
94	-10.3732
57	-10.3736
▁rechten	-10.3737
▁tor	-10.3745
mitgliedern	-10.3749
▁ganze	-10.3767
werke	-10.3777
▁zahl	-10.3779
▁diverse	-10.3782
▁brand	-10.3787
sdorf	-10.3792
▁system	-10.3794
▁weltkrieges	-10.3796
▁schiffe	-10.3797
▁sowjetunion	-10.3797
▁meister	-10.3802
▁links	-10.3805
kammer	-10.3812
▁belegt	-10.3816
▁anwendung	-10.3828
▁washington	-10.383
▁gemeinsame	-10.3835
musik	-10.384
▁cdu	-10.3841
za	-10.3851
do	-10.3855
▁erklärt	-10.3858
▁tiere	-10.3873
▁standen	-10.3881
▁bildung	-10.3887
▁freien	-10.389
teils	-10.3907
▁zählen	-10.3914
mi	-10.3918
▁preußen	-10.3923
▁bauern	-10.3923
▁grafschaft	-10.3927
▁siedlung	-10.3929
▁bonn	-10.3943
▁bremen	-10.3946
▁urkundlich	-10.395
kraft	-10.396
lo	-10.3963
▁26	-10.3965
▁entweder	-10.3966
▁anlage	-10.3983
▁halten	-10.3991
▁super	-10.3991
▁entsprechende	-10.4001
▁erfolge	-10.4007
▁anfangs	-10.4009
fabrik	-10.4015
wirtschaftlichen	-10.4034
ag	-10.4045
▁ortschaft	-10.4046
leiter	-10.4058
ek	-10.4059
▁wesentlich	-10.4065
▁stets	-10.4091
▁öffentlichkeit	-10.4092
bild	-10.4096
▁award	-10.4098
ber	-10.4098
▁autor	-10.41
weit	-10.4103
▁1913	-10.4112
hl	-10.4118
▁bank	-10.4125
▁sprachen	-10.4128
bildung	-10.4136
po	-10.4153
▁artikel	-10.4154
▁rückkehr	-10.416
▁1000	-10.4162
park	-10.4172
▁tore	-10.4172
▁völlig	-10.4177
12	-10.4178
produktion	-10.4188
▁verfahren	-10.419
▁organisation	-10.42
▁lied	-10.4202
mittel	-10.4205
▁merkmale	-10.4212
▁derzeit	-10.4221
▁beschäftigt	-10.4236
▁del	-10.4239
▁programm	-10.4243
▁haushalte	-10.4246
▁gespielt	-10.4249
▁erhielten	-10.4252
▁liga	-10.4254
▁schwester	-10.4255
▁regisseur	-10.4257
18	-10.4257
▁wirkung	-10.4258
liegenden	-10.4259
▁begonnen	-10.4276
▁daraus	-10.4277
unterricht	-10.428
ina	-10.4291
▁direktor	-10.4292
kapelle	-10.4297
▁gelten	-10.4302
▁preis	-10.4302
▁regional	-10.4318
häuser	-10.4323
66	-10.4325
§	-10.4326
▁sammlung	-10.4333
▁vi	-10.4334
▁gewonnen	-10.4341
▁grand	-10.437
▁übrigen	-10.4372
reform	-10.4379
▁sieg	-10.4381
▁pflanzen	-10.4393
▁gemäß	-10.4393
▁rennen	-10.4394
▁1911	-10.4402
▁fünfte	-10.4402
▁stunden	-10.4418
68	-10.442
▁eu	-10.4429
▁umwelt	-10.4431
▁nichts	-10.4437
▁endgültig	-10.4445
schließt	-10.4445
▁marine	-10.4445
▁kleinere	-10.445
▁söhne	-10.4452
bel	-10.4454
▁licht	-10.4461
▁gelegentlich	-10.4467
▁32	-10.4478
geht	-10.4484
▁1908	-10.4485
▁reise	-10.4485
sprache	-10.4487
▁friedhof	-10.4488
▁club	-10.4488
▁nehmen	-10.4495
pass	-10.45
ce	-10.4505
▁feuer	-10.4511
▁größe	-10.4517
▁nahezu	-10.452
▁evangelisch	-10.4521
fc	-10.4524
▁anton	-10.4525
▁rechte	-10.4528
isierung	-10.4528
▁waffen	-10.4529
bürgermeister	-10.4531
▁interesse	-10.4533
▁gezeigt	-10.4537
strecke	-10.4542
▁flughafen	-10.4544
▁verlegt	-10.4546
▁dienen	-10.4547
▁ritter	-10.4556
familie	-10.456
mo	-10.456
▁re	-10.4569
blieben	-10.4572
▁industrie	-10.4574
ordnung	-10.4576
▁vaters	-10.4578
züge	-10.4581
▁dortige	-10.4587
▁fritz	-10.4602
▁gemeindegebiet	-10.4612
▁spielzeit	-10.4612
▁starke	-10.4613
▁ausgetragen	-10.4617
quadratkilometer	-10.462
▁orte	-10.4626
rang	-10.4632
reihe	-10.4637
▁station	-10.4641
▁daran	-10.4646
▁standort	-10.465
team	-10.465
▁rock	-10.4656
▁song	-10.4658
leben	-10.4659
fest	-10.4662
gesetz	-10.4662
▁autoren	-10.4668
▁single	-10.4673
▁städtische	-10.4675
gliederung	-10.4679
▁münster	-10.4679
ly	-10.4682
▁top	-10.4683
▁kontakt	-10.4683
▁frühere	-10.4685
ige	-10.4693
▁vorgesehen	-10.4696
▁ausgestattet	-10.4698
▁sozial	-10.4705
punkt	-10.4706
▁einwohnerzahl	-10.4707
▁1907	-10.4707
▁abgeschlossen	-10.4708
▁150	-10.4709
ri	-10.4709
▁erscheint	-10.4719
▁motor	-10.474
▁verkaufte	-10.4746
nach	-10.4762
▁royal	-10.4767
stellung	-10.4768
▁1905	-10.4769
▁kern	-10.4773
▁private	-10.478
82	-10.4781
▁handels	-10.479
▁werner	-10.4805
▁kraft	-10.4807
wa	-10.4811
▁los	-10.4818
runde	-10.4828
▁bestritt	-10.4832
ius	-10.4834
▁katholischen	-10.4838
▁probleme	-10.484
ey	-10.4843
▁gehalten	-10.4847
krieg	-10.4849
▁1917	-10.4856
▁verlag	-10.487
plan	-10.4876
▁ursprüngliche	-10.4878
▁maler	-10.4879
▁weise	-10.4881
▁zugeordnet	-10.4884
▁fuß	-10.4886
▁besitzen	-10.4889
▁grenzt	-10.4894
netz	-10.49
▁düsseldorf	-10.4906
▁bleibt	-10.4925
va	-10.4947
86	-10.4961
tag	-10.4962
▁zeitung	-10.4967
▁liebe	-10.4972
satz	-10.4973
leistung	-10.4974
▁öffentlich	-10.4981
▁ferner	-10.4982
mindest	-10.499
▁runde	-10.4996
▁allgemein	-10.5017
▁spätere	-10.5024
▁lief	-10.5026
id	-10.5029
ry	-10.5032
boot	-10.5032
front	-10.5034
▁amtszeit	-10.5045
▁aktuelle	-10.5054
▁großteil	-10.5075
▁gustav	-10.5077
▁1906	-10.5077
▁heidelberg	-10.5087
▁verfasste	-10.5088
▁nordrhein	-10.5095
▁open	-10.5103
▁rein	-10.5108
▁mittleren	-10.5108
▁breit	-10.5112
▁aufgestellt	-10.5118
teil	-10.512
▁zweimal	-10.5126
▁bezirk	-10.5128
beck	-10.5129
rand	-10.5139
▁ähnliche	-10.5142
ny	-10.5151
▁besucher	-10.5167
▁damalige	-10.5175
theorie	-10.5183
▁ferdinand	-10.5185
▁original	-10.5189
schlag	-10.5196
abteilung	-10.5197
▁vorher	-10.5198
▁hamburger	-10.5199
▁fach	-10.5199
▁erklärte	-10.5201
▁schulen	-10.5208
bahnhof	-10.5209
▁flug	-10.5209
▁wind	-10.5217
▁vertrat	-10.5223
▁charakter	-10.5235
druck	-10.5235
▁geschrieben	-10.5238
▁amerikanischen	-10.5246
▁alfred	-10.5254
▁angesehen	-10.5255
▁kindern	-10.5257
ff	-10.5262
▁umfangreiche	-10.5262
▁erstreckt	-10.5271
▁besetzt	-10.5272
saison	-10.5273
▁tode	-10.5275
spieler	-10.5278
▁kreuz	-10.5279
un	-10.5281
▁300	-10.5286
▁architekten	-10.5288
▁rest	-10.5292
▁grab	-10.5294
▁entstehen	-10.5297
▁unten	-10.5301
graben	-10.5304
les	-10.5308
che	-10.532
▁russisch	-10.5322
▁live	-10.5324
ic	-10.5329
▁eigenständige	-10.533
19	-10.5331
gut	-10.5333
▁älteren	-10.5337
▁auflösung	-10.5337
men	-10.5339
▁vierten	-10.5344
gau	-10.535
▁ehefrau	-10.5364
wirtschaft	-10.5377
▁br	-10.5382
▁hall	-10.5384
▁gott	-10.5384
▁wesentlichen	-10.5388
▁bezeichnete	-10.539
▁möglicherweise	-10.5396
▁eröffnete	-10.5401
höhe	-10.5401
▁geben	-10.5402
▁chor	-10.541
▁zuständig	-10.541
▁schwarzen	-10.5414
15	-10.5417
▁best	-10.543
des	-10.5434
vereinigung	-10.5436
zi	-10.5453
23	-10.5456
▁erfahrung	-10.5456
▁angriff	-10.5458
▁japanischen	-10.5468
▁meer	-10.5468
▁kalifornien	-10.5468
▁blut	-10.547
▁existiert	-10.5474
▁erkennen	-10.5474
wechsel	-10.5475
▁vorwiegend	-10.5479
inger	-10.5484
▁gegner	-10.5488
▁erhoben	-10.5489
▁bücher	-10.5489
79	-10.5491
▁hektar	-10.5494
▁durfte	-10.5511
▁andreas	-10.5515
14	-10.5516
▁wes	-10.552
kreuz	-10.5526
ü	-10.5532
▁aufnahme	-10.5539
73	-10.5542
▁louis	-10.5561
▁wagen	-10.5574
▁typ	-10.5579
▁entschied	-10.5586
▁ungefähr	-10.559
▁erhöht	-10.5592
größe	-10.5599
ol	-10.5604
78	-10.5611
institut	-10.5614
▁äußere	-10.5615
▁deutschlands	-10.5618
▁villa	-10.5618
▁situation	-10.5622
▁aufgebaut	-10.5627
▁nutzen	-10.5632
76	-10.5636
▁manchmal	-10.5644
schicht	-10.5645
gleich	-10.5649
▁unterscheiden	-10.5655
▁ermöglicht	-10.5661
▁orgel	-10.5662
▁bleiben	-10.5662
je	-10.5669
▁air	-10.567
▁getrennt	-10.5672
▁nordosten	-10.5672
▁island	-10.5673
▁guten	-10.5676
▁südwesten	-10.5678
▁infolge	-10.5685
▁englische	-10.5689
▁entscheidung	-10.5702
▁australien	-10.5705
macht	-10.5705
schiff	-10.5705
▁internet	-10.5711
schau	-10.5717
▁abs	-10.5726
▁scheiterte	-10.5733
▁wert	-10.5735
▁1903	-10.5738
rad	-10.574
station	-10.5741
▁kiel	-10.5743
▁architektur	-10.5748
▁nationale	-10.5751
▁formel	-10.5752
▁ausbau	-10.5754
▁traf	-10.5755
mehr	-10.5766
▁1890	-10.5776
▁richter	-10.5779
▁versehen	-10.578
▁einfach	-10.5782
▁1909	-10.5791
▁revolution	-10.5799
version	-10.5803
gymnasium	-10.5805
▁alles	-10.5811
bi	-10.5811
▁höhere	-10.5811
▁augen	-10.5819
▁abitur	-10.5823
gi	-10.5832
▁geriet	-10.5835
81	-10.5835
si	-10.5838
▁südwestlich	-10.584
▁to	-10.5846
gibt	-10.5856
wesen	-10.5862
▁maschinen	-10.5865
41	-10.5872
griechischen	-10.5879
▁1904	-10.5879
▁kennen	-10.588
ford	-10.5884
ster	-10.5887
▁leistungen	-10.5889
▁südöstlich	-10.5893
77	-10.5904
▁erde	-10.5908
▁punkte	-10.5909
▁donau	-10.5919
nationalen	-10.5924
▁gegend	-10.5927
▁spezielle	-10.5934
▁fahrzeug	-10.5935
▁1871	-10.5938
▁bundesrepublik	-10.5938
▁400	-10.5949
▁arbeiter	-10.5957
▁do	-10.5966
pokal	-10.5971
▁records	-10.5972
berger	-10.5973
schrift	-10.5976
▁erscheinen	-10.598
▁musiker	-10.598
▁weibliche	-10.5981
▁erhält	-10.5986
zer	-10.5988
struktur	-10.5993
▁starken	-10.5993
▁stattdessen	-10.5994
ker	-10.6004
52	-10.6006
▁nordöstlich	-10.6008
ken	-10.6013
21	-10.6028
▁punkten	-10.6034
▁herstellung	-10.6035
▁jahrzehnte	-10.6038
io	-10.6039
▁geografie	-10.604
▁ältesten	-10.6045
kunst	-10.6047
▁baute	-10.6047
ji	-10.6048
▁werde	-10.6058
▁neubau	-10.6062
▁nahmen	-10.6068
▁elisabeth	-10.6082
▁informationen	-10.6088
▁engl	-10.6088
up	-10.6097
▁erinnert	-10.6105
▁behandlung	-10.6107
▁ganzen	-10.6114
▁fernsehen	-10.6115
▁north	-10.6121
ert	-10.613
▁zeitweise	-10.6137
83	-10.6137
▁mio	-10.6138
▁landtag	-10.6143
out	-10.6148
▁weiße	-10.6155
▁späten	-10.6162
▁kanada	-10.6165
▁parlament	-10.6175
▁gelegene	-10.6176
▁sand	-10.618
▁erheblich	-10.6185
▁konzept	-10.6188
▁südosten	-10.6188
▁männliche	-10.6188
▁angegeben	-10.619
▁freund	-10.6192
liste	-10.6192
▁letzter	-10.6195
▁treffen	-10.6198
ve	-10.6199
alter	-10.6199
▁fertiggestellt	-10.6206
38	-10.6211
ville	-10.6214
▁rathaus	-10.6215
▁angenommen	-10.6216
▁bundesstaat	-10.6216
▁angeles	-10.6222
akademie	-10.6223
▁bern	-10.6224
▁1915	-10.6227
▁schweren	-10.6231
▁eigenschaften	-10.6231
▁ortschaften	-10.6249
▁prozess	-10.6252
▁tradition	-10.6253
▁weibchen	-10.6254
▁hotel	-10.6255
liche	-10.6258
▁1870	-10.6259
jahr	-10.6262
▁cup	-10.6264
▁länder	-10.6265
▁würden	-10.6265
▁speziell	-10.6272
▁klaus	-10.6282
▁tief	-10.6282
▁älter	-10.6283
▁wahlkreis	-10.6284
▁nordwesten	-10.6296
▁darf	-10.6301
▁kurt	-10.6304
▁herzogtum	-10.6314
▁länger	-10.6319
▁tonnen	-10.6332
▁1848	-10.6334
mühle	-10.6337
▁eis	-10.6338
▁niederländische	-10.6343
▁halle	-10.6352
▁henry	-10.6353
59	-10.6354
▁alpen	-10.6354
ein	-10.636
▁christoph	-10.6362
▁leistung	-10.6362
▁kopf	-10.6368
▁brandenburg	-10.6369
leicht	-10.6371
bo	-10.6375
▁hafen	-10.6384
liegt	-10.6384
▁company	-10.6386
präsidenten	-10.6386
▁größer	-10.6386
▁1901	-10.6386
▁pfarrer	-10.6396
▁punkt	-10.6399
▁minister	-10.6402
▁umfasste	-10.6408
▁wein	-10.6411
▁ältere	-10.6417
bad	-10.6428
regierung	-10.6431
▁schleswig	-10.6433
▁städten	-10.644
▁mädchen	-10.644
flug	-10.6444
▁berichtet	-10.6446
▁besuch	-10.6448
bundesstaat	-10.6449
▁nordwestlich	-10.6452
▁auszeichnungen	-10.6453
▁traditionelle	-10.6454
mals	-10.6459
▁müller	-10.6462
▁existieren	-10.6466
▁begannen	-10.6467
48	-10.6468
▁notwendig	-10.6468
▁schwere	-10.6469
hi	-10.6478
lässlich	-10.648
▁parteien	-10.6481
kampf	-10.6481
▁produktions	-10.6484
▁sv	-10.6492
▁christliche	-10.6494
ice	-10.6505
▁planung	-10.651
istischen	-10.6511
gt	-10.6511
▁schwarze	-10.6514
▁1902	-10.652
▁verstarb	-10.6524
träger	-10.6532
ebenda	-10.6535
ze	-10.6541
▁beispiele	-10.6543
▁zentrale	-10.6543
▁durchmesser	-10.6553
▁beziehungsweise	-10.6553
zellen	-10.6561
▁reicht	-10.6572
strom	-10.6572
▁gebiete	-10.6577
ingen	-10.6578
▁ausland	-10.6584
▁nominiert	-10.6588
▁typische	-10.6589
▁blau	-10.6596
▁stiftung	-10.6597
end	-10.6601
tätigkeit	-10.6609
charts	-10.6609
▁höher	-10.6616
▁wer	-10.6617
garten	-10.662
don	-10.662
tel	-10.6621
▁stamm	-10.6622
▁chicago	-10.6627
▁weimar	-10.6628
▁daniel	-10.6635
▁ergibt	-10.6647
▁aachen	-10.6653
▁verstärkt	-10.6654
▁fußballspieler	-10.666
▁1916	-10.6663
▁1898	-10.6665
ir	-10.6673
▁bezug	-10.6687
▁freiburg	-10.6688
korps	-10.6688
europa	-10.6695
mark	-10.6701
▁schauspielerin	-10.672
ierte	-10.6722
▁auswahl	-10.6724
▁me	-10.6734
▁1899	-10.6737
▁verhindern	-10.674
fahrt	-10.6743
24	-10.6747
baum	-10.6751
▁verbrachte	-10.6754
▁nächste	-10.6757
▁beruf	-10.6759
▁komplett	-10.6763
▁sofort	-10.6765
▁state	-10.6768
▁brach	-10.6773
▁vereinigt	-10.6779
▁angeschlossen	-10.6782
▁laufbahn	-10.6788
▁vorbild	-10.6789
▁tier	-10.6793
del	-10.6801
▁weder	-10.6802
▁entsteht	-10.6805
▁teilnehmer	-10.6813
▁breiten	-10.6826
national	-10.6827
▁theodor	-10.6831
▁ausgebaut	-10.6832
▁fällen	-10.6836
11	-10.6836
▁führende	-10.6837
▁verurteilt	-10.6841
stufe	-10.6844
▁transport	-10.6847
▁mexiko	-10.6851
▁zusätzliche	-10.6854
▁nannte	-10.686
theater	-10.6866
▁letztere	-10.6875
din	-10.6875
samt	-10.6884
▁seither	-10.6887
▁beschreibt	-10.6888
▁hockey	-10.6894
verbindung	-10.6894
▁township	-10.6897
▁bestandteil	-10.6906
▁gesetzt	-10.6907
▁auftreten	-10.6909
ost	-10.6924
▁dürfe	-10.6925
▁errichtung	-10.6928
▁nürnberg	-10.693
▁bernhard	-10.6931
▁entgegen	-10.6939
▁israel	-10.6941
ec	-10.6962
▁löste	-10.6963
▁dom	-10.6965
süd	-10.6966
auf	-10.6968
▁mainz	-10.6968
bund	-10.697
▁sänger	-10.6974
▁regierungs	-10.6976
▁paar	-10.6976
▁prag	-10.6985
▁normal	-10.6989
▁vorgänger	-10.6994
▁getötet	-10.6999
▁fernseh	-10.7018
kommission	-10.7019
45	-10.7021
▁idee	-10.7026
▁konrad	-10.7029
▁wild	-10.7029
▁verpflichtet	-10.703
65	-10.7033
▁spricht	-10.7043
▁erwähnung	-10.7044
▁finanzielle	-10.7047
▁voll	-10.7049
▁rand	-10.7051
▁schuf	-10.7052
▁kanadische	-10.7052
spielen	-10.706
54	-10.7062
▁kurzen	-10.7065
▁höheren	-10.7072
▁plan	-10.7073
▁braunschweig	-10.7073
eg	-10.7076
▁widerstand	-10.7087
▁hält	-10.7088
▁genannte	-10.7088
▁typisch	-10.7089
▁herz	-10.7091
▁31	-10.7092
44	-10.7093
▁formen	-10.7098
▁27	-10.711
▁pfarrkirche	-10.7112
▁theologie	-10.712
▁beschäftigte	-10.712
▁hieß	-10.7121
▁benötigt	-10.7121
▁sankt	-10.7141
sberg	-10.7144
regiment	-10.7146
▁gas	-10.7147
▁zug	-10.7147
▁stellvertretend	-10.7148
▁1850	-10.715
▁jakob	-10.715
▁tritt	-10.7154
▁untersuchungen	-10.7157
▁sonder	-10.716
kanal	-10.7164
▁ungarn	-10.7164
▁stahl	-10.7165
stil	-10.7168
▁innere	-10.7169
▁oberhalb	-10.7171
▁verhältnis	-10.7171
▁miteinander	-10.7174
▁fenster	-10.7175
namen	-10.7176
west	-10.7187
▁stärker	-10.7197
▁stern	-10.7199
sur	-10.7203
saal	-10.7204
holstein	-10.7213
▁karlsruhe	-10.7214
▁mannschaften	-10.7217
▁erlangte	-10.7226
▁patienten	-10.7227
▁zählte	-10.723
▁gouverneur	-10.7231
▁dach	-10.7235
sk	-10.7236
▁bilder	-10.724
ier	-10.7245
he	-10.7247
▁blüten	-10.7247
▁höchst	-10.7249
chi	-10.725
▁umbau	-10.7252
▁1895	-10.7259
▁medizin	-10.727
▁red	-10.7275
33	-10.7279
motor	-10.7282
▁persönliche	-10.7284
▁engagement	-10.7284
tz	-10.7288
▁traditionell	-10.7291
ö	-10.7294
▁meinung	-10.7299
▁1880	-10.7299
43	-10.73
zone	-10.7303
gericht	-10.7303
gas	-10.7304
präsident	-10.7305
▁bot	-10.7309
36	-10.7312
modell	-10.7314
▁priester	-10.7321
▁umgebaut	-10.7322
zufolge	-10.7322
▁verändert	-10.7325
per	-10.7326
▁gericht	-10.7328
partei	-10.733
▁bringen	-10.7332
▁frankfurter	-10.7334
if	-10.7338
▁fürsten	-10.7351
▁musikalische	-10.7359
▁kw	-10.7359
▁untersuchung	-10.7361
▁kulturelle	-10.7365
▁brüder	-10.7371
▁bezirks	-10.7376
ium	-10.7378
▁organisiert	-10.738
▁katholische	-10.7381
▁ps	-10.7385
▁unterschied	-10.7392
9	-10.7392
▁grün	-10.7396
▁rote	-10.7397
▁ausdruck	-10.7408
▁texte	-10.7411
weiß	-10.7416
▁errichten	-10.7431
fa	-10.7433
▁aufgeführt	-10.7436
▁orts	-10.7436
▁demokratische	-10.7441
▁ergebnisse	-10.7446
▁forschung	-10.746
▁hoher	-10.7461
▁gerhard	-10.7469
▁lieder	-10.747
▁exemplare	-10.7473
einheit	-10.7473
▁zeitraum	-10.7474
▁produzierte	-10.7483
▁kleineren	-10.7485
▁films	-10.7496
▁quelle	-10.7497
gemeinde	-10.7502
▁1896	-10.7504
▁wolf	-10.7504
monaten	-10.7504
92	-10.7506
▁verbinde	-10.751
▁eröffnung	-10.7512
▁versuch	-10.7514
▁sa	-10.7522
▁abgeordneter	-10.7524
▁streit	-10.7526
▁sämtliche	-10.7533
▁benachbarten	-10.7533
▁grenzen	-10.7534
▁1897	-10.7534
rum	-10.7544
▁eigenes	-10.7545
▁klosters	-10.7546
▁wollen	-10.7551
▁schaffte	-10.7551
▁leitet	-10.7558
projekt	-10.7566
▁vergeben	-10.7567
▁schwerpunkt	-10.7568
▁pan	-10.7569
▁kategorie	-10.7569
▁klima	-10.7571
▁untergebracht	-10.7573
▁music	-10.7574
▁entlassen	-10.7576
▁schlug	-10.7577
▁offen	-10.7592
insel	-10.7592
▁bestätigt	-10.7606
com	-10.7607
▁initiative	-10.761
▁essen	-10.7616
▁religiöse	-10.762
ck	-10.7634
▁basel	-10.7642
39	-10.7645
▁grünen	-10.7645
▁grundsätzlich	-10.7648
ho	-10.7654
▁kölner	-10.7655
funktion	-10.7669
▁nördliche	-10.767
wahl	-10.7674
▁vereine	-10.7679
▁besetzung	-10.7679
▁täglich	-10.768
▁definiert	-10.7689
▁verfügte	-10.7692
▁eng	-10.7696
▁begrenzt	-10.7697
▁bestanden	-10.7699
▁black	-10.7703
reich	-10.771
▁autobahn	-10.7713
▁1893	-10.7724
▁ansicht	-10.7727
ausbildung	-10.7729
▁kommunalwahl	-10.7729
▁nachgewiesen	-10.7732
▁beziehungen	-10.7733
daten	-10.7733
26	-10.7737
▁hitler	-10.7738
ale	-10.7739
▁forderte	-10.7742
▁gestaltet	-10.7757
▁64	-10.7757
bert	-10.7763
▁allgemeine	-10.7763
▁dank	-10.7765
▁bistum	-10.7765
▁lernte	-10.7769
▁erfolgreichste	-10.7769
▁ruf	-10.7772
enberg	-10.7775
▁bord	-10.7786
▁flucht	-10.7787
flächen	-10.7787
ci	-10.7788
61	-10.7789
▁heirat	-10.7792
▁ufer	-10.7793
▁erzbischof	-10.7795
▁zugang	-10.7798
▁rat	-10.7799
geschäft	-10.7808
▁umgeben	-10.7808
ron	-10.7827
▁1860	-10.7829
▁festgelegt	-10.7833
▁tagen	-10.7838
▁wohnung	-10.7838
meter	-10.7845
▁erfolgen	-10.7858
▁gottes	-10.7861
▁quer	-10.7864
▁−	-10.7869
▁gesetz	-10.7873
viertel	-10.7875
▁mündet	-10.788
len	-10.7886
gesellschaften	-10.789
56	-10.7895
▁mittlere	-10.7896
verhandlungen	-10.7903
▁nationalsozial	-10.7906
▁nachfolge	-10.7906
▁australische	-10.7906
▁zweck	-10.7916
wettbewerb	-10.7917
gesehen	-10.7918
▁zahlen	-10.7919
▁fischer	-10.7919
▁tom	-10.7921
▁vorkommen	-10.7924
▁34	-10.7925
▁mehrheit	-10.7928
▁anerkannt	-10.7928
▁scheint	-10.7928
▁angeblich	-10.7935
▁kriegsende	-10.7935
ian	-10.7938
▁werdegang	-10.794
gesellschaftlich	-10.794
▁klar	-10.7942
länge	-10.7947
▁bestehenden	-10.7949
▁jeden	-10.7951
kreises	-10.7952
▁künstlerische	-10.7953
born	-10.7957
▁interessen	-10.7957
▁geringe	-10.7961
que	-10.7962
▁ohio	-10.7964
album	-10.7971
▁unteren	-10.7979
▁freie	-10.7979
▁lake	-10.7981
▁inhalt	-10.7982
▁33	-10.7983
▁geringer	-10.7985
ine	-10.7986
▁presse	-10.7987
▁metall	-10.7993
ino	-10.8
▁material	-10.8002
▁festival	-10.8004
wirtschaftliche	-10.8006
▁entfernung	-10.8009
star	-10.8012
▁millimeter	-10.8016
schäden	-10.8016
▁unterscheidet	-10.8019
farben	-10.8027
▁schriften	-10.8028
▁sub	-10.8029
42	-10.8031
stedt	-10.8031
material	-10.8038
▁könne	-10.8045
▁hierzu	-10.8053
▁komponist	-10.8058
▁120	-10.8068
pf	-10.8068
formen	-10.8074
▁erworben	-10.8074
fach	-10.8075
▁standard	-10.8082
▁kapelle	-10.8083
▁ausgeführt	-10.8083
bezirk	-10.809
62	-10.8094
▁wissen	-10.8097
hauses	-10.81
▁filme	-10.81
▁unterstützte	-10.81
ya	-10.8103
▁verfassung	-10.8109
▁universitäten	-10.8111
▁linien	-10.8112
▁tages	-10.8115
▁bisherigen	-10.8122
▁nsdap	-10.8123
▁video	-10.8142
▁zentralen	-10.8145
▁kontrolle	-10.8147
▁gleiche	-10.815
▁strecken	-10.815
▁aktuell	-10.8153
▁weisen	-10.8153
▁tv	-10.8163
the	-10.8164
37	-10.8164
österreichischer	-10.8165
▁möglichst	-10.8172
▁simon	-10.8181
▁volk	-10.8187
▁polnisch	-10.8191
▁bay	-10.8198
▁vorbei	-10.82
▁nämlich	-10.8201
▁gefertigt	-10.8204
▁verboten	-10.8204
▁beteiligte	-10.8204
▁handel	-10.8206
13	-10.8215
▁belgien	-10.8217
▁profi	-10.8227
▁bestehende	-10.8231
▁schaffen	-10.8233
▁bundesstraße	-10.8235
▁dichter	-10.8244
▁1892	-10.8248
▁sicherheits	-10.8251
▁nennt	-10.8253
▁widmete	-10.8259
▁praxis	-10.826
kirchen	-10.8261
▁schwedischen	-10.8266
▁gymnasium	-10.8267
▁verhalten	-10.8267
isten	-10.8269
▁jene	-10.827
▁ehemal	-10.8283
96	-10.8285
53	-10.8288
▁längere	-10.8289
▁göttingen	-10.8297
▁einrichtung	-10.83
▁athen	-10.8309
▁silberne	-10.8317
▁flugzeug	-10.8319
stehenden	-10.8324
port	-10.8324
direktor	-10.8329
▁handelte	-10.8334
▁eisen	-10.8335
ica	-10.8339
▁wehrmacht	-10.8339
▁verband	-10.8342
▁sozialen	-10.8354
▁türkei	-10.8356
▁frühe	-10.8367
▁männchen	-10.8374
gelände	-10.8381
▁zukunft	-10.8382
erst	-10.8384
▁spielten	-10.8384
▁unabhängigkeit	-10.8393
▁sicht	-10.841
▁behandelt	-10.8414
▁einiger	-10.8417
▁königlich	-10.8417
▁operation	-10.8419
▁salzburg	-10.8421
▁tourismus	-10.8423
▁beeinflusst	-10.8429
kosten	-10.8429
▁unbekannt	-10.843
rich	-10.8434
▁königin	-10.8438
sel	-10.8445
verbindungen	-10.8446
▁28	-10.8449
▁indien	-10.8451
herstellung	-10.8458
▁kaufte	-10.846
▁software	-10.8461
▁maximal	-10.8465
▁44	-10.8472
▁eingegliedert	-10.8473
einrichtungen	-10.8474
▁farb	-10.8482
trainer	-10.8484
studium	-10.8484
▁mensch	-10.8487
▁schrift	-10.8488
▁zerstörung	-10.8492
▁fakultät	-10.8496
▁brücke	-10.8498
▁beendet	-10.85
▁festung	-10.8501
▁ulrich	-10.8506
▁kon	-10.8509
▁personal	-10.8512
sozialismus	-10.8512
▁technisch	-10.8514
▁traten	-10.8535
ty	-10.8542
▁teams	-10.8544
tritt	-10.8544
handel	-10.8545
rot	-10.8548
spitze	-10.8548
▁ägypten	-10.8552
▁küste	-10.8552
▁schied	-10.8553
▁promovierte	-10.8558
▁japanische	-10.8566
▁leopold	-10.857
wood	-10.8576
▁verwendete	-10.8587
▁kunden	-10.8591
zen	-10.8598
▁teilnahme	-10.8598
▁religion	-10.8605
▁département	-10.861
▁wettbewerb	-10.861
gel	-10.8621
▁steuer	-10.8641
ben	-10.8642
boden	-10.8643
▁abgerissen	-10.8643
▁group	-10.8644
vertretung	-10.8644
67	-10.8645
▁verteilt	-10.8646
▁bester	-10.8649
ai	-10.8652
einheiten	-10.8655
off	-10.8656
▁wiederholt	-10.8665
loch	-10.8678
▁tat	-10.8679
nitz	-10.8682
▁manche	-10.8683
achse	-10.8687
ließen	-10.8691
▁zugänglich	-10.8697
á	-10.8699
▁fragen	-10.87
▁erlaubt	-10.8709
▁fern	-10.871
▁1891	-10.8713
▁reiches	-10.8714
▁hugo	-10.8715
▁gelangte	-10.8716
▁josé	-10.8718
▁my	-10.8723
▁bieten	-10.8724
▁1888	-10.8725
kel	-10.873
▁ermöglichen	-10.8734
▁beschlossen	-10.8743
▁königliche	-10.8747
▁maßgeblich	-10.8751
▁denkmal	-10.8754
▁soziale	-10.8757
ot	-10.8765
geben	-10.8767
▁kongress	-10.8774
▁berufs	-10.878
▁junioren	-10.8793
▁gekommen	-10.8794
bruch	-10.8802
▁besitzer	-10.8803
▁zustand	-10.8804
stiftung	-10.881
▁1866	-10.8812
hersteller	-10.8818
▁befördert	-10.8819
bevölkerung	-10.8829
▁angebracht	-10.883
▁gewalt	-10.8839
▁julius	-10.8847
▁publikum	-10.8848
witz	-10.8852
▁häuser	-10.8855
▁letztlich	-10.886
▁lautet	-10.8866
one	-10.8871
sp	-10.8873
▁1885	-10.8885
▁santa	-10.8888
verbandes	-10.8892
spiele	-10.8894
▁besiedelt	-10.8896
▁dänemark	-10.8905
▁maßnahmen	-10.8907
felder	-10.8908
let	-10.8908
▁1887	-10.8909
▁extrem	-10.8909
▁regionen	-10.8919
vo	-10.8922
▁carolina	-10.8924
▁schützen	-10.8936
▁glas	-10.894
▁töchter	-10.8945
▁brasilien	-10.8953
bra	-10.8953
wichtigen	-10.8955
▁gründer	-10.8956
▁nutzte	-10.8956
▁herbert	-10.8958
cup	-10.896
fahren	-10.8963
▁oberösterreich	-10.8967
▁hundert	-10.8969
▁fortan	-10.8971
▁street	-10.8975
han	-10.8976
▁etc	-10.8978
▁bereichen	-10.8983
▁flügel	-10.8988
▁güter	-10.9001
▁gefördert	-10.9001
▁ausgabe	-10.9005
▁1894	-10.901
▁stammte	-10.9016
▁morgen	-10.902
▁ausstellung	-10.902
▁1889	-10.9021
▁gebieten	-10.9022
▁francisco	-10.9026
▁schmidt	-10.9029
ii	-10.903
▁lee	-10.903
▁1815	-10.9031
ana	-10.9038
staffel	-10.9039
▁umstritten	-10.904
▁lagen	-10.904
▁high	-10.9044
07	-10.9044
▁beziehung	-10.9046
▁dorfes	-10.905
▁förderung	-10.906
▁jährliche	-10.9064
▁sorgte	-10.9065
sdichte	-10.9066
▁bildhauer	-10.9067
▁jener	-10.907
▁magdeburg	-10.9075
▁abteilung	-10.9076
▁bevölkerungs	-10.908
sitz	-10.9084
▁zogen	-10.9084
▁historisch	-10.9087
▁verhaftet	-10.9088
boote	-10.909
▁darstellt	-10.9091
▁36	-10.9091
du	-10.9092
▁stadtgebiet	-10.9094
▁unterschieden	-10.9095
▁aktiven	-10.91
▁münchner	-10.9102
▁geb	-10.9103
▁wm	-10.9104
▁auftritt	-10.9106
cha	-10.9108
▁ebene	-10.9109
▁association	-10.9111
▁überliefert	-10.9111
▁treten	-10.9115
▁vierte	-10.9115
▁anerkennung	-10.9117
code	-10.912
ok	-10.912
▁einfache	-10.9121
▁aktivitäten	-10.9123
▁altstadt	-10.9129
▁drittel	-10.9131
▁tiefe	-10.9134
58	-10.9149
jo	-10.9153
▁wechsel	-10.9154
▁problem	-10.9156
▁literarische	-10.9159
▁fließt	-10.917
▁1875	-10.9173
herrschaft	-10.9175
räume	-10.9175
sozialisten	-10.9177
anhand	-10.9177
▁bronze	-10.9182
ieht	-10.9182
car	-10.9185
▁marie	-10.9187
kommt	-10.9189
▁strom	-10.9189
▁schreiben	-10.9193
lu	-10.9194
▁präsidenten	-10.9199
ky	-10.9203
ita	-10.9204
▁mathematik	-10.9204
▁milliarden	-10.9209
▁örtliche	-10.9213
▁geplante	-10.9215
▁figuren	-10.9231
▁ausführung	-10.9232
▁funktionen	-10.9233
▁geographische	-10.9233
▁struktur	-10.9237
region	-10.9241
▁eingeweiht	-10.9245
▁einst	-10.9245
▁näher	-10.9254
▁toten	-10.9254
▁gipfel	-10.9254
▁antike	-10.9257
kette	-10.9258
▁sichtbar	-10.9258
verbandsgemeinde	-10.926
▁geweiht	-10.9264
vor	-10.9266
▁chemie	-10.9268
▁abstammung	-10.9268
▁cd	-10.9269
ala	-10.9272
▁geblieben	-10.9276
▁wichtiger	-10.9277
behörde	-10.9277
▁besatzung	-10.9278
▁wunsch	-10.9283
körper	-10.9284
▁1867	-10.9286
▁rad	-10.9287
▁museums	-10.9293
▁golf	-10.9294
▁schauspiel	-10.9294
▁real	-10.9295
▁einsätze	-10.9298
▁gewinn	-10.9301
▁erzählt	-10.9303
bedingungen	-10.9304
▁tun	-10.9304
▁vorstand	-10.9305
▁besonderen	-10.9308
▁übersetzung	-10.9309
▁1500	-10.9311
▁finanz	-10.9316
licht	-10.9317
▁sieger	-10.9322
vin	-10.9326
▁erzeugt	-10.9327
▁jena	-10.9335
▁automobil	-10.934
wo	-10.9341
▁führung	-10.9344
▁umfassende	-10.935
▁produkte	-10.936
▁basiert	-10.936
55	-10.9361
▁1884	-10.937
▁variante	-10.9374
dynastie	-10.9378
itz	-10.9379
▁spitze	-10.9384
▁orten	-10.9385
▁reduziert	-10.9386
▁verlängert	-10.9387
▁elemente	-10.9387
▁center	-10.9394
ari	-10.9396
▁songs	-10.9397
▁grenz	-10.9405
▁dürfte	-10.9406
flügel	-10.941
▁begleitet	-10.9412
▁würzburg	-10.9428
▁jung	-10.9431
systeme	-10.9436
▁franzosen	-10.9439
▁aktive	-10.9446
▁ausländische	-10.9449
▁eduard	-10.9449
▁ausgestrahlt	-10.9451
gebirge	-10.9451
▁sonst	-10.9457
▁schließen	-10.9461
bundes	-10.9469
▁figur	-10.947
werte	-10.947
▁00	-10.9475
nie	-10.9477
▁lager	-10.9487
▁niederlande	-10.9488
▁beschloss	-10.9488
▁spanisch	-10.9497
▁diskussion	-10.9499
▁zeichen	-10.9503
▁veranstaltungen	-10.9507
▁stammende	-10.9509
▁monat	-10.9515
▁lokalen	-10.9529
ding	-10.9533
▁garten	-10.9533
▁endet	-10.9534
▁1879	-10.9536
▁eigen	-10.9537
▁goldene	-10.954
▁kamera	-10.9541
▁society	-10.9546
steht	-10.9548
▁gemälde	-10.9548
line	-10.9549
mittelalterliche	-10.955
▁fällt	-10.9552
▁lehre	-10.9554
▁tunnel	-10.9564
▁afrika	-10.9565
▁öl	-10.9575
▁unterlag	-10.9577
▁ortsteile	-10.9579
95	-10.9581
▁frieden	-10.9584
▁lösung	-10.959
szene	-10.9591
▁1873	-10.9597
▁250	-10.9598
▁vergangenheit	-10.96
blick	-10.96
▁bedient	-10.9619
tisch	-10.9619
ant	-10.962
field	-10.9624
▁dt	-10.9631
▁ergänzt	-10.9631
nau	-10.9634
▁1886	-10.9636
▁florida	-10.964
▁halbfinale	-10.964
tion	-10.964
ischer	-10.9641
▁not	-10.9642
▁erhebung	-10.9644
▁langsam	-10.9645
lehre	-10.9651
▁firmen	-10.9657
turnier	-10.9657
▁promoviert	-10.9658
▁trier	-10.9659
▁gefahr	-10.966
bringen	-10.9661
▁heer	-10.9666
tri	-10.9667
25	-10.9668
▁adam	-10.9673
▁dritter	-10.9674
▁züge	-10.9674
▁römer	-10.9674
mm	-10.9675
▁bezogen	-10.9683
qui	-10.9685
▁verkauf	-10.9687
▁mar	-10.97
town	-10.9703
▁biografie	-10.9707
▁elektrische	-10.9709
▁offenbar	-10.9716
▁vermutet	-10.9717
▁hersteller	-10.9717
▁wohn	-10.9719
▁don	-10.9719
teile	-10.972
▁erforderlich	-10.9721
▁stefan	-10.9721
▁erd	-10.9723
▁übernehmen	-10.9726
zeitung	-10.9727
q	-10.973
thal	-10.9732
▁nachkommen	-10.9738
▁heinz	-10.974
▁praktisch	-10.9742
▁generation	-10.9743
pel	-10.9748
▁heilbronn	-10.975
▁oper	-10.9756
▁states	-10.9761
▁computer	-10.9762
▁änderte	-10.9767
haft	-10.9768
▁ursprung	-10.9773
▁produkt	-10.9777
▁geringen	-10.9782
▁feierte	-10.9785
▁alben	-10.9792
od	-10.9792
▁sicherheit	-10.9793
▁arzt	-10.9803
▁klavier	-10.9805
landschaft	-10.981
▁höhepunkt	-10.981
▁1872	-10.9812
charakteristisch	-10.9812
mon	-10.9816
mus	-10.9819
▁geändert	-10.982
debüt	-10.9826
▁eigentlichen	-10.9829
tin	-10.9831
▁konflikt	-10.9833
▁herausgeber	-10.9835
▁historiker	-10.9837
änderungen	-10.9845
▁hauptrolle	-10.9848
prüfung	-10.9848
▁staates	-10.9851
mitglieder	-10.9853
club	-10.9859
▁gelegen	-10.986
▁werken	-10.9864
▁pariser	-10.9865
▁positiv	-10.9866
▁integriert	-10.9875
▁jagd	-10.9877
▁entwurf	-10.9877
▁ziele	-10.9881
▁archäologische	-10.9891
▁uns	-10.9891
▁franken	-10.9894
▁min	-10.9895
▁vorgestellt	-10.9896
▁entwickeln	-10.9899
▁inseln	-10.9906
▁jüngere	-10.9908
low	-10.9913
▁status	-10.9914
punkte	-10.9916
▁pop	-10.9917
hagen	-10.9922
▁restliche	-10.9926
▁kombination	-10.9926
▁versetzt	-10.9926
▁persönlich	-10.9929
▁kz	-10.9931
▁kupfer	-10.9932
▁landschafts	-10.9932
▁graz	-10.9932
▁gelegt	-10.9933
dach	-10.9935
▁arthur	-10.9937
▁konzert	-10.9939
▁mannheim	-10.9946
▁vertrieben	-10.9946
▁rostock	-10.9951
▁tanz	-10.9953
▁albrecht	-10.9955
▁institute	-10.9956
▁bauwerke	-10.996
▁definition	-10.9964
ps	-10.9968
lingen	-10.997
▁anspruch	-10.9979
▁dörfer	-10.9983
▁rollen	-10.9986
▁mecklenburg	-10.9988
anteil	-10.9996
▁aktien	-10.9997
▁organisierte	-10.9997
▁breslau	-11.0008
rechtliche	-11.001
▁norwegen	-11.0011
▁braun	-11.0016
▁bezieh	-11.0023
▁niedersachsen	-11.0024
▁wichtig	-11.0028
▁gestaltung	-11.003
▁aufgegeben	-11.003
bei	-11.003
▁rücken	-11.0046
▁eingebaut	-11.0051
▁1874	-11.0056
▁ausgebildet	-11.0063
▁veränderungen	-11.0072
▁getragen	-11.0072
▁eigener	-11.0072
offenen	-11.0074
▁goldenen	-11.0075
▁lehr	-11.0076
▁jugendliche	-11.0083
▁gemarkung	-11.0083
kan	-11.0088
▁kommando	-11.0089
ll	-11.0091
▁smith	-11.0093
▁portugal	-11.0095
▁1876	-11.0098
ausschuss	-11.0099
▁existenz	-11.01
▁solcher	-11.01
▁zeiten	-11.0102
▁systematik	-11.0102
▁anhänger	-11.0105
▁europas	-11.0106
▁kaiserliche	-11.0108
71	-11.0114
kloster	-11.0116
▁fahrer	-11.0119
▁1878	-11.0121
▁55	-11.0122
▁bewegung	-11.0134
▁1882	-11.0135
▁werte	-11.0136
▁handeln	-11.0149
▁beschränkt	-11.0152
▁funde	-11.0153
hafen	-11.0159
endorf	-11.0162
einandersetzung	-11.0174
▁sturm	-11.0174
▁tübingen	-11.0184
ac	-11.0186
▁major	-11.019
▁chef	-11.0192
▁dreh	-11.0192
▁beschädigt	-11.0198
▁1881	-11.02
▁architekt	-11.0203
▁gesprochen	-11.0204
lau	-11.0206
rs	-11.0209
bibliothek	-11.0209
ment	-11.021
▁betreibt	-11.0211
▁beigesetzt	-11.0211
▁elektronische	-11.0216
▁sendung	-11.022
47	-11.022
siedlung	-11.0224
▁pferde	-11.0225
ru	-11.0226
and	-11.0227
▁star	-11.0229
▁qualifikation	-11.0229
▁geistliche	-11.0234
▁entwicklungs	-11.0237
▁british	-11.0238
▁glauben	-11.0252
bu	-11.0259
anstalt	-11.0262
▁eigentümer	-11.0264
▁stadion	-11.0264
sam	-11.0265
▁sinn	-11.0268
▁bo	-11.0271
▁löwen	-11.0271
nachbargemeinden	-11.0273
▁600	-11.0275
▁untersucht	-11.0276
▁finanziell	-11.0278
anhalt	-11.0281
min	-11.0284
▁einrichtungen	-11.0285
▁academy	-11.0289
▁abstand	-11.0294
▁division	-11.0297
▁jüngeren	-11.0304
▁chinesischen	-11.0304
▁you	-11.0313
▁ersatz	-11.0314
▁erweiterung	-11.0318
▁sechste	-11.0318
dessen	-11.0318
ball	-11.0321
basis	-11.0325
az	-11.0326
ou	-11.0327
san	-11.0328
▁einheit	-11.0331
▁vielfach	-11.0331
▁1883	-11.0337
▁zeitgenössische	-11.0339
▁erfolgreichen	-11.0345
▁entschieden	-11.0345
▁angeordnet	-11.0347
▁1861	-11.0347
▁inter	-11.0349
▁farbe	-11.035
enburg	-11.0352
▁rück	-11.0352
▁reste	-11.0354
▁online	-11.0355
▁dreißigjährige	-11.0355
▁einheiten	-11.0358
▁wiederaufbau	-11.0366
rin	-11.0368
▁unterstellt	-11.0369
▁religions	-11.0372
▁übergeben	-11.0372
▁erhöhte	-11.0374
▁bedeutendsten	-11.038
▁hart	-11.0381
▁übersetzt	-11.0383
▁geschlagen	-11.0383
▁sp	-11.0391
▁tempel	-11.0393
fer	-11.0393
chor	-11.0398
▁1800	-11.04
▁jack	-11.0401
linien	-11.0401
dy	-11.0402
▁zivil	-11.0402
▁edward	-11.0403
▁force	-11.0404
▁nationen	-11.0406
▁fallen	-11.0408
ran	-11.0415
▁46	-11.0418
ros	-11.0418
old	-11.0419
brunnen	-11.0421
of	-11.0422
▁dortmund	-11.0423
▁geburt	-11.0424
katholischen	-11.0425
▁geleitet	-11.0426
▁vorsitzende	-11.0428
▁verlängerung	-11.0431
▁mehrmal	-11.0431
▁ethnisch	-11.0431
▁ergeben	-11.0431
management	-11.0432
▁val	-11.0445
▁corps	-11.045
▁holte	-11.0454
zahlen	-11.0458
hütte	-11.046
▁10.000	-11.0462
▁augsburg	-11.0462
stock	-11.0464
▁gezogen	-11.0467
51	-11.0471
▁alternative	-11.0481
▁design	-11.0487
▁37	-11.0492
▁ereignisse	-11.0493
▁ausstattung	-11.0504
▁brief	-11.0509
▁bauen	-11.0513
minister	-11.0513
sky	-11.0516
▁geschäfts	-11.0516
▁verbesserung	-11.0518
way	-11.0518
▁funk	-11.0519
mp	-11.052
frei	-11.0521
▁erhältlich	-11.0529
tu	-11.0535
ts	-11.054
magazin	-11.0542
▁pa	-11.0548
▁he	-11.0554
▁thüringen	-11.0559
▁ermordet	-11.0562
mont	-11.0562
▁trifft	-11.0564
▁sprechen	-11.0567
▁östliche	-11.0572
▁niederlanden	-11.0573
▁komponisten	-11.0574
▁anti	-11.0575
74	-11.0582
▁inne	-11.0583
▁reiste	-11.0583
▁unternahm	-11.0586
▁chemische	-11.0593
zo	-11.0594
▁grad	-11.0596
▁pläne	-11.0596
ting	-11.0596
▁1877	-11.0597
▁geschützt	-11.06
▁nachrichten	-11.0605
▁38	-11.0606
ell	-11.0606
▁gebrauch	-11.0607
▁bestehend	-11.0612
▁nhl	-11.0613
▁1869	-11.0613
scher	-11.0614
▁österreichs	-11.0615
▁entsprach	-11.0617
▁schwierig	-11.0617
bl	-11.0634
▁langer	-11.0641
▁beobachtet	-11.0643
▁1868	-11.0643
▁kirchengemeinde	-11.0647
▁qualität	-11.0653
▁kassel	-11.0654
▁partner	-11.0654
▁engagierte	-11.0655
▁white	-11.0657
▁reformation	-11.0657
▁wählte	-11.0658
smal	-11.0661
▁con	-11.0664
▁love	-11.0667
▁bildungs	-11.0668
▁neustadt	-11.0674
winkel	-11.0683
▁eingemeindet	-11.0683
▁innenstadt	-11.0687
kin	-11.069
▁abhängig	-11.0692
▁temperatur	-11.0695
grund	-11.0699
spannung	-11.0703
stunden	-11.0704
isiert	-11.0709
▁auszeichnung	-11.0713
▁nummer	-11.0716
à	-11.0719
produktionen	-11.0724
▁denkmalschutz	-11.0725
▁eishockey	-11.0728
▁golden	-11.0732
▁haushalts	-11.0735
▁benannte	-11.0736
▁eingetragen	-11.0736
▁methoden	-11.0737
▁haut	-11.0744
▁mögliche	-11.0752
▁leistungs	-11.0752
▁künste	-11.0753
▁urkunde	-11.0754
lange	-11.0755
▁sir	-11.0755
▁verwaltungssitz	-11.0756
▁house	-11.0756
▁venedig	-11.0756
oc	-11.0757
▁studio	-11.0763
▁umgewandelt	-11.0766
▁stellten	-11.0766
▁feuerwehr	-11.0767
▁prinz	-11.0767
▁direkte	-11.077
▁erfolgreiche	-11.0771
zell	-11.0775
▁1865	-11.0783
öl	-11.0785
▁umsetzung	-11.0787
▁alliierten	-11.079
▁rundfunk	-11.0791
▁kritisiert	-11.0791
inseln	-11.0795
politische	-11.0796
▁geeignet	-11.0798
fi	-11.0802
▁briten	-11.0811
▁kurzer	-11.0812
typ	-11.0812
gasse	-11.0815
▁kritiker	-11.0816
▁1840	-11.0828
zustand	-11.0829
▁hessische	-11.0835
▁brown	-11.0836
▁gaben	-11.0841
▁gelangen	-11.0842
▁verlust	-11.0845
▁bill	-11.0845
▁berühmte	-11.0846
▁gedreht	-11.085
▁teils	-11.085
▁orchester	-11.0854
tra	-11.0861
▁angebot	-11.0869
els	-11.0871
▁kindheit	-11.0876
▁abgelöst	-11.0878
▁1862	-11.0881
▁gesehen	-11.0884
▁kino	-11.0887
▁mary	-11.089
▁erfurt	-11.0895
▁abzu	-11.0901
▁woche	-11.0903
▁symbol	-11.0905
▁bring	-11.0907
förderung	-11.0908
▁sächsischen	-11.0912
laden	-11.0914
▁kommunistische	-11.0914
▁friedens	-11.0914
bogen	-11.0915
ierten	-11.0915
▁ordens	-11.0928
▁schreibt	-11.093
▁ausgestellt	-11.0932
▁sog	-11.0941
berlin	-11.0942
▁mir	-11.0942
▁akademische	-11.0944
▁klub	-11.0944
▁rücktritt	-11.0945
▁kämpfen	-11.0945
▁schluss	-11.0947
▁herrscher	-11.0949
all	-11.0951
▁regeln	-11.0955
▁amerika	-11.0959
persönlichkeiten	-11.096
▁hauptbahnhof	-11.0961
▁42	-11.0963
▁informations	-11.0965
▁griechenland	-11.0966
▁linke	-11.0971
iv	-11.0977
gg	-11.0981
ix	-11.0983
31	-11.0984
▁prinzip	-11.099
sie	-11.0994
stoff	-11.0997
▁kämpfte	-11.0997
▁natürliche	-11.0998
▁eroberung	-11.1
▁lehnte	-11.1001
▁ex	-11.1006
von	-11.1009
▁erlebte	-11.1015
35	-11.1018
▁zugelassen	-11.1023
sheim	-11.1023
▁helmut	-11.1024
stadion	-11.1033
ov	-11.1041
▁erbaute	-11.1042
▁setzen	-11.1045
▁fehlende	-11.1046
fällt	-11.1047
▁gehörende	-11.105
▁gegenwart	-11.1057
ay	-11.1058
▁spät	-11.106
▁bühnen	-11.106
▁lokale	-11.1062
teilen	-11.1062
▁1849	-11.1072
verbände	-11.1072
▁rumänien	-11.1074
▁geborene	-11.1077
▁bund	-11.1088
▁herausgegeben	-11.1089
▁marburg	-11.1089
▁france	-11.1089
gan	-11.1096
verlauf	-11.1096
pause	-11.1106
▁ausreichend	-11.1107
▁übergang	-11.1111
▁debüt	-11.1113
einsatz	-11.1116
▁1864	-11.1117
▁hill	-11.1121
pp	-11.1125
zeiten	-11.1126
sammlung	-11.1128
wiesen	-11.1129
▁unternehmer	-11.1135
▁konkurrenz	-11.1136
▁datum	-11.1136
nis	-11.114
etz	-11.1141
▁einzig	-11.1146
▁intensiv	-11.1146
indischen	-11.1148
▁siegen	-11.1155
▁abend	-11.1159
stern	-11.116
sgeschichte	-11.116
▁antonio	-11.1162
▁krankenhaus	-11.1164
rechte	-11.1165
▁stimme	-11.1167
▁bessere	-11.117
▁gezählt	-11.1171
dan	-11.1171
▁vorhandenen	-11.1171
sverfahren	-11.1175
▁grüne	-11.1177
▁weltcup	-11.1177
ip	-11.1178
mauer	-11.1179
▁gewässer	-11.118
▁falle	-11.1181
▁einheimische	-11.1184
34	-11.1191
▁juan	-11.1192
▁ernannte	-11.1193
▁geheim	-11.1197
krise	-11.1201
▁erich	-11.1202
▁menge	-11.1207
▁label	-11.1207
▁eigentliche	-11.1207
▁entdeckte	-11.1213
▁pierre	-11.1215
name	-11.1216
▁bedingt	-11.1218
dur	-11.1218
sicherheit	-11.1224
▁geteilt	-11.1225
▁wetter	-11.1226
▁könnten	-11.1226
▁onkel	-11.1229
▁methode	-11.1229
▁bob	-11.1229
▁unterteilt	-11.1234
▁trennung	-11.1239
▁vgl	-11.1242
▁niederlage	-11.1243
möglichkeiten	-11.1243
▁gewisse	-11.1245
▁science	-11.1249
▁richtete	-11.1253
tour	-11.1257
dal	-11.1259
mel	-11.126
▁usw	-11.1261
vi	-11.1264
hand	-11.1265
▁herr	-11.1269
▁auszu	-11.127
▁getroffen	-11.127
▁sagte	-11.1271
▁forst	-11.1273
ara	-11.1275
▁umfang	-11.1276
▁sal	-11.128
▁gast	-11.1283
▁gefängnis	-11.1284
▁ad	-11.1286
▁salz	-11.1297
tier	-11.1298
▁arnold	-11.13
lis	-11.1301
▁big	-11.1301
▁begründet	-11.1304
▁lebensweise	-11.1311
hain	-11.1311
▁bereit	-11.1313
tis	-11.1314
▁1803	-11.1317
▁beider	-11.1318
▁heilige	-11.1319
▁demnach	-11.132
▁sportliche	-11.1322
▁hilfs	-11.1322
▁suche	-11.1324
▁verfolgt	-11.1325
erfolg	-11.1327
analyse	-11.1334
▁bass	-11.1337
▁vogel	-11.1338
rock	-11.1339
22	-11.1341
▁begründete	-11.1342
▁deutschsprachig	-11.1345
▁bundeswehr	-11.1346
án	-11.1349
▁aussage	-11.1354
flusses	-11.1356
veranstaltungen	-11.1358
stück	-11.1358
▁zweier	-11.1359
▁zusammengefasst	-11.136
▁beiträge	-11.1362
▁machten	-11.1363
sis	-11.1364
sta	-11.1368
▁offene	-11.137
▁fehlen	-11.137
▁modelle	-11.1376
▁sonstige	-11.1376
▁übernahme	-11.1381
▁geschäftsführer	-11.1385
▁oftmals	-11.1402
folge	-11.1411
haltung	-11.1411
▁nennen	-11.1413
▁schild	-11.1414
▁latein	-11.1414
ph	-11.1423
tan	-11.1426
▁griechisch	-11.1428
▁landkreises	-11.143
▁rasch	-11.1431
aufnahmen	-11.1432
lose	-11.1433
▁lokal	-11.1437
▁unterstützen	-11.1442
▁texas	-11.1442
▁aufnahmen	-11.1454
▁landschaft	-11.1456
gl	-11.1459
hauptstadt	-11.1467
▁straßenbahn	-11.1468
wertung	-11.147
▁green	-11.1473
▁fürst	-11.1473
▁stephan	-11.1478
▁amts	-11.148
▁leo	-11.1481
▁1863	-11.1481
▁projekte	-11.1482
▁orden	-11.1484
▁lebensmittel	-11.1486
▁angrenzende	-11.1486
▁fortsetzung	-11.1488
▁aussehen	-11.1488
▁mag	-11.149
▁amateur	-11.1491
▁christen	-11.1493
▁800	-11.1494
▁stieß	-11.1497
▁sed	-11.1497
▁king	-11.1504
▁wärme	-11.1504
lehrer	-11.1505
einfachen	-11.1505
▁49	-11.1506
▁schritt	-11.1508
auer	-11.1509
▁marien	-11.1515
▁bergbau	-11.1516
▁fielen	-11.1516
▁reichen	-11.1523
▁dietrich	-11.1524
▁stammten	-11.1529
af	-11.153
▁einstellung	-11.1531
▁stadtrat	-11.1531
▁sekunden	-11.1532
▁konstruktion	-11.1533
▁darstellen	-11.1537
staaten	-11.1537
▁behörden	-11.1539
pi	-11.1546
▁eindeutig	-11.1548
▁verletzt	-11.1549
▁nachweis	-11.1549
▁betroffen	-11.1553
▁ideen	-11.1554
reise	-11.1561
▁dreimal	-11.1563
▁kirchliche	-11.1565
▁wirkt	-11.1567
▁bevorzugt	-11.1567
▁mittelpunkt	-11.157
▁möchte	-11.1571
nummer	-11.1572
ah	-11.1576
grenze	-11.1577
▁register	-11.1577
▁äußerst	-11.1577
▁siedler	-11.1582
▁juristische	-11.1584
tum	-11.1587
▁panzer	-11.1596
ram	-11.1598
händler	-11.1598
▁unfall	-11.1599
maschine	-11.16
▁angesiedelt	-11.16
▁genaue	-11.1605
minute	-11.1613
▁vorgenommen	-11.1613
ku	-11.1621
▁erstellt	-11.1626
▁stellung	-11.1632
sh	-11.1639
▁farben	-11.1645
win	-11.1647
▁test	-11.1647
▁spielklasse	-11.1651
5.000	-11.1651
▁ziehen	-11.1654
fluss	-11.1659
▁hören	-11.1664
▁ermöglichte	-11.1667
▁baureihe	-11.1668
truppen	-11.1672
▁gering	-11.1673
▁dauerte	-11.1675
▁jerusalem	-11.1677
▁rede	-11.1677
▁end	-11.168
▁hinein	-11.1682
▁italienisch	-11.1682
▁einzu	-11.1683
▁enthielt	-11.1686
▁gekennzeichnet	-11.1689
ap	-11.1689
▁amsterdam	-11.169
position	-11.1692
▁senat	-11.1693
▁1856	-11.1696
▁bat	-11.1696
▁hauptort	-11.1699
lar	-11.1701
▁koch	-11.1709
▁turnier	-11.171
▁east	-11.1711
firma	-11.1713
▁wandte	-11.1714
▁anlass	-11.1715
net	-11.1715
▁joe	-11.1716
well	-11.1718
▁erfolglos	-11.1733
▁siebte	-11.1741
▁75	-11.1742
▁180	-11.1743
▁ermittelt	-11.1746
▁nunmehr	-11.1747
▁joachim	-11.1747
▁physik	-11.1755
▁jersey	-11.1756
▁wahlen	-11.1757
uk	-11.1758
regierungsbezirk	-11.1759
verlag	-11.1759
▁premierminister	-11.1761
friedhof	-11.1768
▁hause	-11.1771
▁verwenden	-11.1772
türkischen	-11.1774
plätze	-11.1774
▁ausbruch	-11.1775
▁zusammenschluss	-11.1778
▁western	-11.1781
▁fusion	-11.1782
▁altar	-11.1782
ida	-11.1786
▁irland	-11.1787
ad	-11.179
▁schiffs	-11.1792
▁keiner	-11.1794
▁varianten	-11.1798
▁schweizerische	-11.1799
▁besucht	-11.1804
systems	-11.1805
ano	-11.1808
phase	-11.1809
säure	-11.181
▁abgeleitet	-11.1813
▁belgische	-11.1814
▁britischer	-11.1816
▁abt	-11.1818
▁oberliga	-11.1823
▁linz	-11.1825
▁verlief	-11.1826
▁freiheit	-11.1826
op	-11.183
hu	-11.1836
rath	-11.1838
geschlossen	-11.1842
▁virginia	-11.1845
▁sebastian	-11.1848
08	-11.1851
▁zugun	-11.1853
▁netz	-11.1854
▁ball	-11.1855
▁flotte	-11.1863
▁verfügbar	-11.1863
▁mich	-11.1867
union	-11.1868
▁vereinigung	-11.1868
▁bewusst	-11.1874
▁lebensraum	-11.1879
▁aufgeteilt	-11.1879
figur	-11.1881
fuß	-11.1884
▁gesichert	-11.1887
▁rezeption	-11.1889
▁beteiligung	-11.189
bal	-11.189
▁wollten	-11.1892
test	-11.1892
über	-11.1894
▁gewannen	-11.19
▁renaissance	-11.19
▁countys	-11.1903
▁1830	-11.1903
▁massen	-11.1905
arm	-11.1907
▁columbia	-11.191
▁ausgeschlossen	-11.1914
▁wovo	-11.1915
▁umgesetzt	-11.1919
▁weber	-11.192
schaffung	-11.1921
▁phase	-11.1921
▁master	-11.1926
sätze	-11.1939
alb	-11.1944
▁innsbruck	-11.1944
▁reichte	-11.1946
84	-11.1947
▁1859	-11.1947
▁reaktion	-11.195
last	-11.1951
▁engagiert	-11.1953
formation	-11.1958
▁marke	-11.196
voll	-11.1961
▁satz	-11.1962
wall	-11.1964
32	-11.1964
▁durchbruch	-11.1966
▁wege	-11.1966
▁inschrift	-11.1967
har	-11.1967
bre	-11.197
sburg	-11.1978
▁dänischen	-11.1978
▁abgelehnt	-11.1982
▁eingang	-11.1983
möglichen	-11.1985
sson	-11.1985
▁via	-11.1987
ette	-11.1988
▁erkennbar	-11.1994
zwischenzeitlich	-11.1999
▁nordamerika	-11.2002
das	-11.2003
▁glocken	-11.2006
förmig	-11.2007
▁lehrte	-11.2013
▁verfassungs	-11.2014
kar	-11.2015
▁par	-11.2017
val	-11.2018
▁barock	-11.2024
▁sozialdemokrat	-11.2028
▁39	-11.2031
▁verdienste	-11.2032
▁kauf	-11.2035
gy	-11.204
▁pfarrei	-11.2041
geburtstag	-11.2043
▁islamische	-11.2046
hen	-11.2049
▁mess	-11.205
▁anzu	-11.2055
▁suchte	-11.2057
▁verschieden	-11.2058
maschinen	-11.2068
▁gottfried	-11.2073
▁jackson	-11.2073
ras	-11.2078
hart	-11.208
▁gezwungen	-11.2081
▁verteidigung	-11.2083
könig	-11.2083
▁110	-11.2084
▁bedingungen	-11.2092
▁nachbar	-11.2094
▁jacob	-11.2096
▁volksschule	-11.2097
▁reguläre	-11.2097
▁fertigstellung	-11.2102
▁verwendeten	-11.2104
▁mein	-11.2108
▁fungierte	-11.2112
▁flüsse	-11.2112
▁langjährige	-11.2112
▁1814	-11.2113
▁tschechien	-11.2114
fahr	-11.2116
▁datiert	-11.2118
vis	-11.2119
▁schwierigkeiten	-11.2119
gewicht	-11.2125
▁wider	-11.2128
▁erhebliche	-11.2131
▁arrondissement	-11.2131
▁iran	-11.2132
ill	-11.2133
jan	-11.2135
▁kurzzeitig	-11.2135
▁manchen	-11.2136
▁glaubens	-11.2142
▁filmen	-11.2142
▁mailand	-11.2143
▁gefangen	-11.2143
▁flagge	-11.2144
▁südafrika	-11.2146
▁umstände	-11.215
geist	-11.2151
▁spitzen	-11.2152
▁theorie	-11.2152
▁nikolaus	-11.2152
▁kleines	-11.2159
▁unabhängige	-11.216
▁bezüglich	-11.2168
▁bekommen	-11.2169
▁dm	-11.217
▁natürlichen	-11.2171
freiheit	-11.2172
▁emil	-11.2172
▁regionale	-11.2181
▁johnson	-11.2184
▁matthias	-11.2184
▁besiedlung	-11.2184
▁studie	-11.2187
▁exil	-11.2189
▁jünger	-11.2191
gründen	-11.2194
versorgung	-11.2195
▁halbinsel	-11.2198
tunnel	-11.2201
▁car	-11.2204
▁sender	-11.2205
▁tu	-11.2206
row	-11.2211
▁fürstentum	-11.2215
▁victoria	-11.2217
repräsentanten	-11.2218
therapie	-11.2219
ada	-11.2221
▁menschlichen	-11.2221
▁heimatstadt	-11.2225
▁mac	-11.2227
kon	-11.2232
▁blue	-11.2235
▁klassen	-11.2236
zucht	-11.2237
hoff	-11.2238
eth	-11.2242
▁risiko	-11.2242
tus	-11.2246
▁positive	-11.2248
▁pflege	-11.2248
▁südliche	-11.2253
▁treffer	-11.2253
ska	-11.2253
verarbeitung	-11.2254
platten	-11.2254
▁erscheinung	-11.2258
deutschen	-11.2258
wirkung	-11.226
becken	-11.2266
▁arbeitgeber	-11.2272
▁leer	-11.2274
▁unterschrieb	-11.2275
lutherische	-11.2276
▁bürgerkrieg	-11.2278
▁abstieg	-11.2283
▁monte	-11.2283
▁barbara	-11.2285
▁arm	-11.2288
ionen	-11.2288
air	-11.2289
▁sprint	-11.2291
▁ben	-11.2299
▁madrid	-11.2302
▁bronzemedaille	-11.2302
▁brachten	-11.2302
▁betreiben	-11.2303
temperatur	-11.2303
▁spätestens	-11.2306
▁service	-11.2307
▁wesentliche	-11.2312
show	-11.2315
▁rosa	-11.2316
ang	-11.2318
▁geschätzt	-11.2318
▁urteil	-11.2322
▁bruno	-11.2324
▁gedichte	-11.2329
▁aussagen	-11.2331
hab	-11.2333
▁argentinien	-11.2336
stärke	-11.2337
ut	-11.2346
itsch	-11.2346
▁schnee	-11.2351
▁anforderungen	-11.2355
niederlage	-11.2361
▁gefärbt	-11.2361
▁digital	-11.2366
▁drehbuch	-11.2366
direkten	-11.237
▁qualifizierte	-11.2371
busse	-11.2372
▁erhaltene	-11.2373
las	-11.2373
▁rosen	-11.2374
▁poly	-11.2374
89	-11.2386
feier	-11.2387
▁sang	-11.2397
▁siedelte	-11.2404
▁männern	-11.2408
▁williams	-11.241
▁identisch	-11.2415
▁entworfen	-11.2419
▁kaisers	-11.2419
▁51	-11.242
▁gesundheits	-11.2421
▁ausgerüstet	-11.2421
▁westliche	-11.2422
▁sonne	-11.2428
ds	-11.2431
▁fassung	-11.2432
ms	-11.2438
▁vorteil	-11.2443
▁jürgen	-11.2445
ob	-11.2446
wirtschaftlich	-11.2455
schnitt	-11.2458
▁heeres	-11.2458
▁entdeckung	-11.2459
17	-11.2462
▁lieferte	-11.2463
▁vieler	-11.2464
▁scott	-11.247
niederösterreich	-11.2473
▁geöffnet	-11.2476
▁leistete	-11.2476
▁route	-11.2477
▁präsentiert	-11.248
▁einzeln	-11.2483
▁ausgewiesen	-11.2489
▁mont	-11.2492
▁plänen	-11.2492
▁mannschafts	-11.2493
schein	-11.2494
ula	-11.2498
▁central	-11.2499
▁christus	-11.25
▁ansässig	-11.2507
▁leser	-11.2508
▁tiefen	-11.2511
▁zoll	-11.2515
▁krone	-11.2517
▁gewicht	-11.2517
▁abgeordneten	-11.2521
▁durchsetzen	-11.2522
▁historic	-11.2523
▁barcelona	-11.2523
▁ansonst	-11.2526
▁gestaltete	-11.2528
▁dienten	-11.2531
▁entscheidend	-11.2532
▁behielt	-11.2534
▁verstorben	-11.2544
▁boston	-11.2545
ologie	-11.2549
▁norwegische	-11.2549
revolution	-11.2555
▁3000	-11.2557
▁jo	-11.2562
▁erfüllt	-11.2565
▁ausgewählt	-11.2566
▁bergen	-11.2569
▁infanterie	-11.2572
▁angepasst	-11.2573
tar	-11.2575
▁folgezeit	-11.2576
▁arts	-11.2584
▁anstelle	-11.2585
▁konzerte	-11.2586
▁ac	-11.2587
▁gerichts	-11.2589
ast	-11.2597
posten	-11.2599
▁1852	-11.26
lot	-11.2602
▁osmanische	-11.2604
▁foto	-11.2605
prozess	-11.2606
aufnahme	-11.2609
▁verfolgung	-11.2615
stätte	-11.2619
are	-11.2621
ini	-11.2621
▁lebenden	-11.2623
▁nahrung	-11.2623
▁hinten	-11.2625
▁enge	-11.2625
ata	-11.2629
▁freunde	-11.2636
▁kolonial	-11.2641
stab	-11.2642
64	-11.2642
ella	-11.2646
▁berücksichtigt	-11.2649
▁auswirkungen	-11.2651
▁träger	-11.2653
▁staatlich	-11.2658
kämpfer	-11.266
▁regen	-11.2663
▁sängerin	-11.2663
kongress	-11.2664
▁seltener	-11.2665
▁dicht	-11.2665
▁fisch	-11.2668
▁beherbergt	-11.2669
▁dauer	-11.2669
lösung	-11.267
scheid	-11.2673
dra	-11.2674
▁dunkle	-11.2678
▁sozialistische	-11.2679
▁befehl	-11.268
49	-11.2681
▁zweites	-11.2686
▁gelb	-11.2689
▁bibliothek	-11.2689
▁flächen	-11.2691
▁kooperation	-11.2692
▁erweiterte	-11.2702
▁feste	-11.2703
▁plz	-11.2707
stätten	-11.2709
partner	-11.2709
▁griechische	-11.2713
▁lübeck	-11.2716
▁verhindert	-11.272
▁blues	-11.2722
▁mor	-11.2726
▁party	-11.2728
▁stift	-11.2729
ep	-11.273
cy	-11.2737
verletzungen	-11.274
streifen	-11.2741
▁erzbistum	-11.2741
bilder	-11.2742
eb	-11.2746
fragen	-11.2749
age	-11.2749
deutschsprachige	-11.2751
länder	-11.2752
▁verbreitete	-11.2753
▁grundlagen	-11.2755
▁freier	-11.2758
geld	-11.2758
▁mission	-11.2759
▁long	-11.2761
▁seen	-11.2765
▁1857	-11.2767
wege	-11.2771
pen	-11.2773
▁leipziger	-11.2777
▁modern	-11.2779
ola	-11.2779
▁verteidigungs	-11.2779
katholische	-11.2782
▁abgebrochen	-11.2782
idae	-11.2783
▁aufmerksam	-11.2784
grad	-11.2785
dis	-11.2786
menge	-11.2786
▁1855	-11.2787
trafen	-11.2788
▁belagerung	-11.2789
dauer	-11.2789
▁falsch	-11.2791
▁existierte	-11.2791
▁ruhestand	-11.2794
▁geregelt	-11.2798
▁samuel	-11.2798
▁sonstiges	-11.2799
▁act	-11.28
▁vize	-11.28
▁beauftragt	-11.2801
▁1854	-11.2801
fahrer	-11.2803
▁nochmal	-11.2806
▁wohnte	-11.2806
▁kap	-11.2811
▁enger	-11.2812
▁po	-11.2813
▁gesang	-11.2813
sender	-11.2815
▁entstandene	-11.2819
▁instituts	-11.2819
▁jahrhunderte	-11.282
▁rio	-11.2825
egg	-11.2825
▁ausgerichtet	-11.283
▁journalist	-11.283
wächst	-11.2833
springen	-11.2834
tsch	-11.2835
planung	-11.2836
▁angesicht	-11.2836
sing	-11.2836
▁pol	-11.2842
▁christlich	-11.2843
▁luxemburg	-11.2845
▁ergab	-11.2845
▁überraschend	-11.2846
▁viertelfinale	-11.2857
▁vermeiden	-11.2859
▁football	-11.2861
▁kur	-11.2862
ju	-11.2863
▁bedarf	-11.2864
▁verbesserte	-11.2865
ex	-11.2866
▁versuchen	-11.2868
ary	-11.2869
▁navy	-11.2871
böden	-11.2873
▁vorübergehend	-11.2877
▁keller	-11.2877
▁abgebaut	-11.2882
▁hell	-11.2882
▁uhrzeigersinn	-11.2883
▁regionalen	-11.2884
▁bühne	-11.2888
▁wirtschaftliche	-11.2891
▁bericht	-11.2891
▁regionalliga	-11.2893
▁young	-11.2893
▁stücke	-11.2894
▁erinnerung	-11.2895
▁zieht	-11.2895
▁maximilian	-11.2896
▁hinsichtlich	-11.2896
maß	-11.2897
▁övp	-11.2901
brief	-11.2905
▁festgestellt	-11.2906
▁ursache	-11.2908
▁miss	-11.2908
▁nad	-11.2908
▁erklärung	-11.2909
▁bisherige	-11.2911
mes	-11.2918
reichen	-11.292
▁antiken	-11.2921
kom	-11.2923
▁böhmen	-11.2926
▁mc	-11.2926
▁griff	-11.2928
▁jesus	-11.2929
tau	-11.293
30	-11.2931
lein	-11.2931
▁oberfläche	-11.2934
▁tatsache	-11.2935
▁auseinandersetz	-11.2935
▁verfügen	-11.2936
▁realisiert	-11.2941
▁flugzeuge	-11.2944
▁schlosses	-11.2949
▁afrikanische	-11.295
▁kapitel	-11.2951
▁italienischer	-11.2952
▁promotion	-11.2959
▁assistent	-11.2959
▁kandidaten	-11.296
▁saß	-11.2964
▁sank	-11.2964
zelle	-11.2964
▁berühmt	-11.2966
geschichtliche	-11.2967
▁umfeld	-11.2968
wi	-11.2971
▁legt	-11.2971
▁petersburg	-11.2975
▁berichtete	-11.2982
▁krankheit	-11.2983
orden	-11.2983
▁eberhard	-11.2984
abschluss	-11.2985
▁rechtsanwalt	-11.2987
▁potsdam	-11.2989
fahrten	-11.2991
geräte	-11.2993
▁kapitän	-11.2995
▁reserve	-11.2998
▁baum	-11.3001
▁engel	-11.3001
auswahl	-11.3003
▁erlangen	-11.3006
▁hamm	-11.3006
▁stationen	-11.3007
halten	-11.3008
organisationen	-11.301
▁nowik	-11.3011
▁besetzten	-11.3012
▁beginnen	-11.3012
▁oscar	-11.3013
plätzen	-11.3014
fried	-11.3016
▁budapest	-11.3018
▁vergleichbar	-11.3018
▁schlecht	-11.3018
▁48	-11.3018
▁obersten	-11.302
▁distrikt	-11.3022
▁israelische	-11.3024
▁umliegende	-11.3027
iger	-11.3028
▁versuche	-11.3036
dies	-11.3038
▁gewerbe	-11.3041
▁südwest	-11.3042
ausgabe	-11.3046
▁annahme	-11.3046
▁aufmerksamkeit	-11.3054
▁aufgehoben	-11.3054
▁verstanden	-11.3059
▁besonderheit	-11.306
▁reisen	-11.3064
▁fehlt	-11.3066
▁gewidmet	-11.3067
av	-11.3069
mond	-11.3069
▁obere	-11.307
▁chile	-11.3072
▁auffassung	-11.3075
sc	-11.3075
▁freizeit	-11.3075
abschnitt	-11.3076
mat	-11.3078
▁→	-11.3078
▁har	-11.308
su	-11.3089
iz	-11.309
▁gestalt	-11.3092
platte	-11.3094
▁siedlungen	-11.3094
gänge	-11.3095
▁front	-11.3099
▁rückzug	-11.3102
cia	-11.3107
▁ständig	-11.3108
▁überlieferung	-11.3116
stra	-11.3121
▁küsten	-11.3123
bauer	-11.3123
▁bi	-11.313
arzt	-11.3131
nik	-11.3131
▁1853	-11.3134
ris	-11.3134
▁gr	-11.3136
auflage	-11.3136
ive	-11.3136
▁eugen	-11.3141
jugend	-11.3141
pl	-11.3141
spieltag	-11.3141
rt	-11.3144
▁ausgrabung	-11.3147
▁fernsehserie	-11.3147
wende	-11.3155
▁betriebe	-11.3156
▁höhen	-11.3156
▁witwe	-11.3157
▁ermittlung	-11.3164
gold	-11.317
▁fehler	-11.317
stufen	-11.3172
▁solo	-11.3173
▁niederländisch	-11.3174
▁road	-11.3178
▁typs	-11.3179
zügen	-11.318
▁geschichts	-11.3181
▁wahr	-11.3182
▁christi	-11.3184
▁mündung	-11.3184
▁betroffenen	-11.3184
▁papier	-11.3185
▁bell	-11.3186
zentren	-11.3187
▁bor	-11.3188
borg	-11.3189
medaille	-11.3194
ray	-11.3198
▁04	-11.3198
▁1858	-11.3198
▁erfuhr	-11.3204
▁indianer	-11.3204
brunn	-11.3207
▁line	-11.3209
▁duisburg	-11.3209
fahrzeuge	-11.3209
▁provinzen	-11.3211
▁grundschule	-11.3211
▁hoffnung	-11.3212
▁blick	-11.3213
hälfte	-11.3214
▁unklar	-11.3218
▁bewohnt	-11.322
▁elektrischen	-11.3221
▁beinhaltet	-11.3221
▁stillgelegt	-11.3222
enbach	-11.3223
nutzung	-11.3223
▁angehörte	-11.3225
▁geschlecht	-11.3229
▁jura	-11.3229
▁nachwuchs	-11.3236
▁genug	-11.3237
verhalten	-11.3238
▁abgegeben	-11.3245
▁eigentum	-11.3247
▁brust	-11.3247
▁european	-11.3248
▁highway	-11.3248
-1	-11.3249
▁bibel	-11.325
▁can	-11.3251
not	-11.3251
▁nötig	-11.3252
▁1851	-11.3253
▁umgang	-11.3254
▁1200	-11.3254
met	-11.3254
▁felix	-11.3256
▁95	-11.3259
vorstellungen	-11.3259
rus	-11.3265
▁grau	-11.3267
▁jones	-11.3269
hard	-11.3269
unter	-11.3271
▁regensburg	-11.3274
▁ehemann	-11.3276
effekt	-11.3277
▁goethe	-11.3278
▁go	-11.3279
▁samen	-11.3281
▁verleihung	-11.3283
▁gegliedert	-11.3284
▁berge	-11.3287
fels	-11.3289
fe	-11.329
▁arabischen	-11.3293
▁veranstaltet	-11.33
konferenz	-11.3305
▁sach	-11.3307
▁vii	-11.3312
lach	-11.3314
▁botschafter	-11.3315
▁beliebt	-11.3316
▁automatisch	-11.3317
▁straf	-11.3317
▁dampf	-11.3325
▁kommunikation	-11.3328
setzten	-11.333
▁1845	-11.3334
▁schneider	-11.3335
aria	-11.3335
▁ausgesetzt	-11.3339
▁gefährdet	-11.3341
▁weite	-11.3342
earl	-11.3342
brechen	-11.3344
▁serien	-11.3344
verteilung	-11.3345
ven	-11.3347
bezeichnung	-11.3348
▁angebaut	-11.335
kow	-11.335
▁trugen	-11.3351
leistungen	-11.3351
▁michel	-11.3352
lan	-11.3354
▁folgejahr	-11.3355
▁sanierung	-11.3358
▁todes	-11.3361
getragen	-11.3362
▁nutzt	-11.3362
▁lat	-11.3363
fassung	-11.337
▁vorläufer	-11.3374
▁steve	-11.3375
▁mike	-11.3377
tv	-11.338
▁beschrieb	-11.3381
▁gewissen	-11.3381
cher	-11.3381
▁durchführung	-11.3383
verhältnisse	-11.3383
▁universitäts	-11.3386
▁katharina	-11.3386
▁bier	-11.3386
▁1846	-11.3387
zier	-11.3387
ef	-11.3391
▁objekte	-11.3392
▁vollständige	-11.3392
▁elbe	-11.3393
▁1818	-11.3396
▁db	-11.3396
▁eier	-11.3404
▁errang	-11.3406
▁geling	-11.3413
▁sicherte	-11.3413
om	-11.3419
▁saale	-11.342
▁verwandt	-11.3424
sprachen	-11.3428
ani	-11.3433
▁bereiche	-11.3435
losen	-11.3437
▁brücken	-11.3443
▁büro	-11.3446
meyer	-11.3449
▁oberst	-11.345
▁47	-11.3461
▁sonnen	-11.3463
▁mauer	-11.3468
▁mord	-11.3469
▁1813	-11.347
ys	-11.347
▁rektor	-11.3477
ub	-11.3477
▁show	-11.3477
▁bio	-11.3479
▁dauerhaft	-11.348
▁stattfand	-11.3481
sende	-11.3484
▁zurzeit	-11.3484
archiv	-11.3485
▁starben	-11.3486
▁naturpark	-11.3491
▁diskutiert	-11.3492
▁spanischer	-11.3493
▁adler	-11.3494
▁siegte	-11.3497
richter	-11.3499
▁lu	-11.3502
▁anfänge	-11.3506
mitte	-11.3507
wort	-11.3509
▁wall	-11.3509
▁trocken	-11.3515
▁voraus	-11.3515
▁mo	-11.352
sy	-11.3524
stücke	-11.3531
▁verantwortung	-11.3534
ath	-11.3535
▁häufiger	-11.3537
▁ethnie	-11.3538
fußball	-11.3539
▁erzielt	-11.354
▁free	-11.3542
wil	-11.3543
▁analog	-11.3544
▁zusatz	-11.3544
▁unterscheidung	-11.3547
▁gewöhnlich	-11.3547
▁moritz	-11.3552
vereins	-11.3556
▁auswärtige	-11.3562
▁entscheiden	-11.357
mitten	-11.357
▁richtig	-11.3571
▁kohle	-11.3571
▁früchte	-11.3577
▁abtei	-11.3577
▁windows	-11.3581
▁manfred	-11.3582
▁fund	-11.3583
▁gebäudes	-11.3585
▁islam	-11.3589
breitungsgebiet	-11.3589
▁toronto	-11.359
▁su	-11.3591
horst	-11.3591
mu	-11.3592
gestaltung	-11.3593
now	-11.36
▁with	-11.3602
rit	-11.3603
▁ehrenamtlich	-11.3604
kau	-11.3606
▁hauses	-11.3612
▁verlieh	-11.3616
▁verwaltet	-11.3623
▁sicher	-11.3627
gleichung	-11.3628
karten	-11.3629
▁alters	-11.3629
takt	-11.3631
vers	-11.3642
▁dvd	-11.3644
▁militärisch	-11.3644
▁günther	-11.3645
▁vorstellung	-11.3648
ft	-11.3649
▁sektion	-11.365
ingenieur	-11.3655
▁schneller	-11.3655
▁pseudonym	-11.3658
▁wachsende	-11.3658
▁giovanni	-11.3663
▁fahren	-11.3664
lied	-11.3664
▁hügel	-11.3665
bestand	-11.3667
▁viertel	-11.3669
og	-11.3669
▁dresdner	-11.3674
oder	-11.3674
back	-11.3676
hält	-11.3681
▁zeugen	-11.3683
pol	-11.3686
▁las	-11.3686
▁great	-11.3687
▁verstehen	-11.3693
í	-11.3695
gebiete	-11.3695
▁residenz	-11.3695
▁lehen	-11.3697
▁registriert	-11.3703
▁henri	-11.3705
▁beitrag	-11.3706
▁afroamerikaner	-11.3706
▁bgb	-11.3711
ria	-11.3717
finale	-11.3719
▁abbau	-11.372
est	-11.3722
▁ortsgemeinde	-11.3722
ud	-11.3722
▁kündigte	-11.3722
mos	-11.3724
▁entscheidende	-11.3724
▁festen	-11.3724
strich	-11.3729
▁schlossen	-11.3733
▁wagner	-11.374
▁kn	-11.374
▁neuzeit	-11.3741
▁1847	-11.3743
▁bon	-11.3743
pro	-11.3749
▁bewegen	-11.3751
▁beschäftigten	-11.3754
ves	-11.3754
▁brüssel	-11.3755
▁buchstaben	-11.3755
▁cor	-11.3756
▁pre	-11.3757
▁amtsgericht	-11.3758
▁populär	-11.3761
▁regelmäßige	-11.3762
▁play	-11.3762
▁erschlossen	-11.3766
ez	-11.3768
▁kapital	-11.3768
▁sprecher	-11.3769
▁finnland	-11.3772
▁silbermedaille	-11.3774
▁publikationen	-11.3775
motoren	-11.3776
▁betreut	-11.378
▁kontakte	-11.3781
fenster	-11.3793
▁befestigt	-11.3793
▁erreichbar	-11.3793
▁renn	-11.3795
▁verpasste	-11.3798
▁kalk	-11.38
▁asien	-11.3802
▁bischofs	-11.3802
▁karten	-11.3804
aturschutzgebiet	-11.3806
sendung	-11.3809
qualität	-11.381
▁lehrstuhl	-11.3813
▁harry	-11.3814
bahnen	-11.3815
▁bahnhofs	-11.3816
mannschaften	-11.3821
staat	-11.3825
marsch	-11.3828
▁unterbrochen	-11.3828
▁aufweisen	-11.3831
▁ägyptische	-11.3837
▁diplom	-11.3838
nacht	-11.3839
angebot	-11.3841
▁ukraine	-11.3843
▁absolute	-11.3843
▁kommunal	-11.3848
▁ensemble	-11.3851
gar	-11.3851
▁hinweis	-11.3853
hielten	-11.3867
roman	-11.3869
▁zahlreicher	-11.3874
more	-11.3875
zeichnung	-11.3875
▁rose	-11.3878
württembergische	-11.3891
▁bündnis	-11.3899
schloss	-11.39
▁kor	-11.39
▁spö	-11.3902
▁justiz	-11.3904
▁schwerer	-11.3906
▁we	-11.3907
▁parlaments	-11.3907
▁fdp	-11.3908
▁beweis	-11.391
panzer	-11.3916
▁lokomotiven	-11.3916
▁charlotte	-11.3917
ministeriums	-11.3918
▁verbindungen	-11.3918
▁ungewöhnlich	-11.3921
och	-11.3928
▁darauffolgende	-11.3932
▁bauwerk	-11.3935
▁gefeiert	-11.3937
▁verfasst	-11.3937
aceae	-11.3938
hit	-11.3946
pflanzen	-11.3949
▁erneuert	-11.395
▁lateinischen	-11.395
nischen	-11.3951
▁organisationen	-11.3953
ober	-11.3956
▁brasilianische	-11.3956
▁verlaufende	-11.3967
▁fähigkeiten	-11.3971
▁awards	-11.3973
▁wiesen	-11.3976
▁außerordentlich	-11.3986
▁theologische	-11.3987
▁heran	-11.3988
▁bachelor	-11.3996
▁tokio	-11.3996
ón	-11.4004
▁col	-11.4004
tochter	-11.4006
▁ausgehend	-11.4014
▁victor	-11.4015
▁genf	-11.4016
▁100.000	-11.4017
▁wander	-11.4018
▁bundestagswahl	-11.4018
▁erinnern	-11.4018
heide	-11.4019
pflege	-11.4021
rolle	-11.4022
▁anordnung	-11.4023
▁finnische	-11.4023
verhältnis	-11.4024
energie	-11.4025
con	-11.4025
▁160	-11.4028
▁wiesbaden	-11.4031
schluss	-11.4032
▁gitarrist	-11.4037
▁erzielen	-11.4037
▁first	-11.404
▁tiefer	-11.404
▁seitlich	-11.404
▁feder	-11.4041
kunde	-11.4042
güter	-11.4043
brand	-11.4044
▁umgekehrt	-11.4048
karte	-11.4049
typen	-11.4051
▁muster	-11.4053
kräfte	-11.4054
▁vorschlag	-11.4055
▁bedeutete	-11.4056
▁country	-11.4056
▁zulassung	-11.4061
▁corporation	-11.4061
gehalt	-11.4064
▁liegende	-11.4066
figuren	-11.4066
▁verteidiger	-11.4067
dt	-11.4069
▁gründungs	-11.4071
▁blätter	-11.4072
▁05	-11.4073
fraktion	-11.4076
▁bezog	-11.4077
▁mitteleuropa	-11.4079
▁gleicher	-11.408
▁albums	-11.4081
▁mond	-11.4082
▁erfüllen	-11.4086
▁schreibweise	-11.4091
▁zeitungen	-11.4091
▁gedanken	-11.4093
▁jap	-11.4095
masse	-11.4098
▁schwert	-11.4101
▁verluste	-11.4101
▁tirol	-11.4103
▁130	-11.4105
versicherung	-11.4108
▁radikal	-11.4109
▁verursacht	-11.4109
▁1843	-11.411
▁chinesische	-11.4113
▁gefahren	-11.4113
bedarf	-11.4115
ziel	-11.4116
,	-11.412
▁davor	-11.4122
lock	-11.4123
▁mu	-11.4123
▁tele	-11.4126
gon	-11.4127
▁verkehren	-11.4127
ausstellung	-11.4129
▁neffe	-11.4129
▁helfen	-11.4131
▁stockholm	-11.4132
fonds	-11.4135
▁ernennung	-11.4137
500	-11.4137
▁ablauf	-11.4139
▁territorium	-11.4141
vogel	-11.4146
shire	-11.4146
zimmer	-11.4147
▁warschau	-11.4148
▁alkohol	-11.4151
▁geschickt	-11.4153
▁bundesländer	-11.4159
offizier	-11.4159
88	-11.416
05	-11.4161
bit	-11.4162
▁schwedische	-11.4163
▁identität	-11.4164
▁mineral	-11.4165
▁selbständig	-11.4167
▁protest	-11.4168
wein	-11.4168
▁schön	-11.417
ae	-11.4171
▁ibn	-11.4172
acht	-11.4173
▁stunde	-11.4174
▁camp	-11.4175
schulen	-11.4175
▁leiden	-11.4176
▁ruhr	-11.4177
▁kurs	-11.4178
br	-11.4183
▁armutsgrenze	-11.4183
side	-11.4183
steuer	-11.4185
▁vorne	-11.4186
gu	-11.4187
▁güterverkehr	-11.419
▁leisten	-11.4192
▁unterschiede	-11.4194
▁landgericht	-11.4195
ellen	-11.4196
▁heck	-11.42
gerät	-11.4201
▁eingestuft	-11.4202
▁wilson	-11.4203
ré	-11.4205
▁insekten	-11.4207
sbach	-11.4207
▁künstlern	-11.4212
▁darmstadt	-11.4212
grün	-11.4212
oni	-11.4216
▁lizenz	-11.4218
▁hochzeit	-11.4219
▁verstorbene	-11.4219
landes	-11.4221
▁hals	-11.4221
bühne	-11.4225
res	-11.4225
▁verkehrt	-11.4225
▁jüngste	-11.4232
▁dokumentiert	-11.4232
▁zeche	-11.4232
▁plötzlich	-11.4234
▁geliefert	-11.4234
▁vorder	-11.4234
▁bekannter	-11.4236
▁antrag	-11.424
▁szenen	-11.4241
▁gedruckt	-11.4244
▁gelegenheit	-11.4245
▁etliche	-11.4247
mitglied	-11.4247
▁säulen	-11.4248
orthodoxe	-11.425
▁davis	-11.4251
▁ausstellungen	-11.4254
▁medizinischen	-11.4255
▁phil	-11.4257
schichten	-11.4259
▁schülern	-11.4265
▁sofern	-11.4265
▁gotische	-11.4266
▁grundstück	-11.427
▁1820	-11.4271
▁wales	-11.4271
▁zeichnete	-11.4278
▁bürgerliche	-11.4279
▁debütierte	-11.4281
▁vol	-11.4282
▁trans	-11.4286
litz	-11.4292
ate	-11.4293
ew	-11.4293
▁medizinische	-11.4293
▁roger	-11.4294
01	-11.4295
▁pat	-11.4296
▁kommandeur	-11.4298
▁einflüsse	-11.4299
▁kantons	-11.4302
▁überreste	-11.4303
▁finanziert	-11.4308
▁1834	-11.4308
▁enkel	-11.4308
jährig	-11.4309
▁neuseeland	-11.431
betriebe	-11.431
▁spielfilm	-11.4318
▁vereint	-11.4321
▁landtags	-11.4324
▁09	-11.4331
▁junior	-11.4332
▁landtagswahl	-11.4332
▁versionen	-11.4334
artig	-11.4336
▁verbessert	-11.4341
▁kinos	-11.4342
beschreibung	-11.4348
▁entspring	-11.435
roth	-11.435
▁änderung	-11.4351
tur	-11.4351
▁internationaler	-11.4351
▁vergleichsweise	-11.4352
▁artillerie	-11.4352
▁instrument	-11.4354
▁1835	-11.4355
▁worauf	-11.4355
▁einzug	-11.4357
▁dissertation	-11.4357
rahmen	-11.4359
▁tropische	-11.436
▁erb	-11.4362
ev	-11.4366
sig	-11.4372
kam	-11.4372
▁mode	-11.4376
▁final	-11.4377
▁singles	-11.4381
laufbahn	-11.4381
▁goldmedaille	-11.4383
▁rumpf	-11.4385
▁runden	-11.4388
▁erlitt	-11.4388
▁befindlichen	-11.4389
▁schwach	-11.439
▁1842	-11.4392
▁signal	-11.4394
ufer	-11.4396
wick	-11.4398
▁zustimmung	-11.4399
▁möglichkeiten	-11.4401
▁reichstag	-11.4402
▁kar	-11.4402
▁wahrheit	-11.4404
bataillon	-11.4407
▁aktion	-11.4411
▁spuren	-11.4417
▁lord	-11.4421
bürger	-11.4426
erkrankungen	-11.4429
räumen	-11.4429
▁kanal	-11.4433
▁ersetzte	-11.4434
▁tim	-11.4435
▁herum	-11.444
▁fa	-11.4441
▁besiegte	-11.445
▁railway	-11.4454
▁wehr	-11.4459
▁gesundheit	-11.446
spor	-11.4461
chef	-11.4464
▁fein	-11.4464
▁digitale	-11.4464
ges	-11.4466
▁pr	-11.4466
▁zdf	-11.4467
▁bedeckt	-11.4469
▁steigt	-11.4469
ks	-11.4469
▁mühlen	-11.4472
▁beginnend	-11.4473
▁wähler	-11.4475
▁schlüssel	-11.4475
▁hölzerne	-11.448
▁sydney	-11.4487
▁ureinwohner	-11.4492
▁dialog	-11.4493
rie	-11.4494
▁gesellschafts	-11.45
eis	-11.4505
▁werbe	-11.4506
▁häufigste	-11.4507
king	-11.4509
kurve	-11.4511
▁zeitschriften	-11.4514
dor	-11.4516
▁chris	-11.4517
▁entsprechen	-11.4518
▁natürlich	-11.4521
▁1844	-11.4523
▁para	-11.4524
tournee	-11.4528
▁verwandten	-11.4528
▁dfb	-11.453
einrichtung	-11.453
▁million	-11.4535
▁rekord	-11.4537
▁begraben	-11.4538
▁hollywood	-11.454
▁gabriel	-11.4541
▁felsen	-11.4544
▁stärkste	-11.4544
▁verlegte	-11.4546
ico	-11.4548
▁gestorben	-11.455
09	-11.4553
▁portugiesische	-11.4554
▁herausragende	-11.4555
luft	-11.4557
cd	-11.4562
format	-11.4563
▁elektro	-11.4565
▁museen	-11.4565
ziehen	-11.4565
wahlen	-11.4567
▁ausgelegt	-11.4569
▁ansatz	-11.457
▁beruht	-11.4571
▁carlos	-11.4574
elemente	-11.4575
▁91	-11.4575
lebensjahr	-11.4575
igkeit	-11.4576
▁aufzu	-11.4578
▁sitze	-11.4578
▁erfahren	-11.4578
▁legende	-11.4578
hammer	-11.4579
qu	-11.458
▁schicksal	-11.4581
sinn	-11.4582
3.000	-11.4583
▁widerstands	-11.4587
oberfläche	-11.4589
rohr	-11.459
▁dieter	-11.4591
▁district	-11.4593
waren	-11.4599
feuer	-11.46
▁mitbegründer	-11.4602
▁bochum	-11.4604
▁gattungen	-11.4606
▁ehrungen	-11.461
▁ordnung	-11.4613
konzern	-11.4614
▁naturschutz	-11.4615
▁zurückzuführen	-11.4617
▁vorherige	-11.4619
▁veranstaltung	-11.4621
palast	-11.4622
fo	-11.4623
▁kontext	-11.4625
▁eva	-11.4626
▁anne	-11.4627
▁luftwaffe	-11.4631
▁francis	-11.4632
▁olympia	-11.4632
▁jurist	-11.4634
▁oblast	-11.4636
▁normalen	-11.4641
▁neuere	-11.4649
▁manuel	-11.465
▁schottland	-11.4652
jänne	-11.4652
fahrzeug	-11.4657
▁kathedrale	-11.4659
▁erforschung	-11.466
sar	-11.4661
▁unterrichtete	-11.4661
▁völker	-11.4662
war	-11.4662
▁bands	-11.4663
▁hinweise	-11.4663
zeitschrift	-11.4666
▁auftritte	-11.4666
ira	-11.4669
shausen	-11.467
▁freundschaft	-11.467
▁generell	-11.4672
▁gallen	-11.4675
▁fans	-11.4676
ea	-11.468
▁uraufführung	-11.4681
▁kleinste	-11.4681
▁1838	-11.4682
▁performance	-11.4683
▁prinzessin	-11.4685
▁flach	-11.4688
▁drehte	-11.4688
weltmeister	-11.4688
▁zugeschrieben	-11.4689
produkte	-11.4689
▁installiert	-11.469
▁iso	-11.4692
▁markus	-11.4693
▁kommission	-11.4693
▁institutionen	-11.4694
▁bewegt	-11.4695
ole	-11.4698
ele	-11.47
▁restauriert	-11.4701
▁kardinal	-11.4704
▁seinerzeit	-11.4707
▁1837	-11.4708
▁istanbul	-11.471
▁vertrags	-11.471
▁dick	-11.4711
klinik	-11.4712
▁bundesland	-11.4718
▁bitte	-11.472
dia	-11.4721
▁wende	-11.4725
č	-11.4726
▁brauerei	-11.4729
▁thron	-11.4732
ax	-11.4732
▁übernahmen	-11.4733
▁tony	-11.4738
▁oliver	-11.4741
▁belegen	-11.4741
▁verzeichnet	-11.4741
▁freiherr	-11.4743
▁1839	-11.4746
▁müsse	-11.4747
▁schuld	-11.4749
gewinnung	-11.4749
schild	-11.4753
▁erobert	-11.4753
▁teilte	-11.4753
▁kritisch	-11.4755
agentur	-11.4756
▁mittelmeer	-11.4757
▁landgemeinde	-11.4762
▁saisonende	-11.4762
▁blaue	-11.4763
▁fährt	-11.4764
erfährt	-11.4772
▁kabinett	-11.4772
▁reine	-11.4774
▁43	-11.4775
▁eingezogen	-11.4777
bol	-11.4779
▁berufung	-11.478
▁bin	-11.478
▁unmittelbarer	-11.4786
▁bestimmung	-11.4786
▁austausch	-11.4787
▁auge	-11.4788
sort	-11.479
▁musikalisch	-11.4791
▁web	-11.4791
▁benutzer	-11.4792
dar	-11.4796
zahlung	-11.4797
cht	-11.4802
▁schlesien	-11.4806
▁synagoge	-11.4806
▁vereinzelt	-11.4808
▁vögel	-11.4809
▁1832	-11.4809
häusern	-11.481
▁allmählich	-11.4812
▁knochen	-11.4813
stoffe	-11.4816
aufgaben	-11.4817
▁kredit	-11.4818
▁jäger	-11.4819
ehr	-11.482
▁schacht	-11.482
▁drama	-11.482
▁adelsgeschlecht	-11.4823
▁patrick	-11.4824
▁unterrichtet	-11.4825
▁5000	-11.4829
▁etablierte	-11.4829
▁komposition	-11.4832
▁mr	-11.4832
4.000	-11.4836
▁spannung	-11.4839
▁gestartet	-11.4839
▁philosophische	-11.484
westfälischen	-11.4842
▁bremer	-11.4845
orchester	-11.4847
▁übte	-11.4847
französischen	-11.485
▁verbot	-11.485
we	-11.4851
förmige	-11.4852
▁preußisch	-11.4852
▁sun	-11.4854
▁ho	-11.4855
▁straßburg	-11.4857
▁angst	-11.486
▁voraussetzungen	-11.4862
▁gesammelt	-11.4872
▁uss	-11.4872
▁erkannte	-11.4877
stetten	-11.4877
▁haltepunkt	-11.4878
▁leichter	-11.4878
jäger	-11.488
▁wal	-11.4881
▁1836	-11.4887
▁kräfte	-11.4887
▁netzwerk	-11.4889
▁integration	-11.489
▁spielzeiten	-11.4894
▁manager	-11.4894
är	-11.4897
mis	-11.49
▁stadtzentrum	-11.49
dingen	-11.4903
▁benjamin	-11.4905
▁jugendlichen	-11.4905
▁gründe	-11.4905
▁londoner	-11.4907
▁herzogs	-11.4907
benz	-11.491
▁vorbereitung	-11.4914
ins	-11.4916
ika	-11.4917
▁wellen	-11.4918
ios	-11.492
▁konstanz	-11.4921
▁interview	-11.4926
▁gemessen	-11.4926
literatur	-11.4927
▁gefolg	-11.4927
▁vermehrt	-11.4928
van	-11.4928
häfen	-11.4932
▁armen	-11.4936
š	-11.4937
▁ausdrücklich	-11.4938
gott	-11.4939
▁substanz	-11.4941
▁versorgt	-11.4942
infanterie	-11.4943
▁doktor	-11.4944
▁verbündete	-11.4945
amerikaner	-11.4949
▁auseinander	-11.4949
▁positionen	-11.4953
▁metal	-11.4954
▁sagen	-11.4958
▁tschechische	-11.4959
▁bielefeld	-11.496
fähigkeit	-11.496
▁brut	-11.4963
▁1821	-11.4969
hergestellt	-11.4972
▁erfasst	-11.4976
▁bestimmen	-11.498
▁gitarre	-11.4981
▁matt	-11.4985
▁marc	-11.4988
▁streitkräfte	-11.4991
▁massachusetts	-11.4993
▁begriffe	-11.4994
▁darstellungen	-11.4994
▁südamerika	-11.4999
▁retten	-11.5002
▁ausrichtung	-11.5009
▁connecticut	-11.5009
▁schulter	-11.501
▁bmw	-11.501
▁1841	-11.5014
▁beschluss	-11.5014
zieht	-11.5015
▁ratsmitglieder	-11.5016
istische	-11.5017
▁kandidat	-11.5019
▁pi	-11.5019
▁himmel	-11.5022
▁heide	-11.5024
hang	-11.5028
▁bernard	-11.5028
▁tabelle	-11.503
▁glück	-11.5033
arbeiter	-11.5034
▁41	-11.5035
▁maschine	-11.5039
nick	-11.5039
ecke	-11.504
▁selber	-11.5041
▁gegenstand	-11.5041
▁anwesen	-11.5042
▁primär	-11.5042
▁koblenz	-11.5044
▁komponierte	-11.5052
ämter	-11.5053
▁offensichtlich	-11.5053
▁uefa	-11.5053
höhle	-11.5054
gewinn	-11.5059
▁urkundliche	-11.5063
gebietes	-11.5063
▁anfänglich	-11.5063
▁musical	-11.5066
▁luther	-11.507
ahl	-11.5071
▁meeres	-11.5072
▁sagt	-11.5073
▁bestätigte	-11.5073
▁kontinuierlich	-11.5075
▁mechanische	-11.5077
▁kader	-11.5086
▁liefert	-11.5086
▁verbessern	-11.5087
▁140	-11.5089
▁media	-11.509
▁ausgesprochen	-11.5094
▁zeitgleich	-11.5097
▁verheiratete	-11.5098
regime	-11.5099
▁szene	-11.5101
nahverkehr	-11.5102
▁zusammensetzung	-11.5102
▁messe	-11.5102
▁philadelphia	-11.5104
▁horst	-11.5105
schreiben	-11.5107
▁meine	-11.5108
schreiber	-11.5113
▁paare	-11.5113
▁bedeutender	-11.5113
▁objekt	-11.5116
▁reichstags	-11.5116
fl	-11.5116
▁beach	-11.5117
▁sophie	-11.5121
erz	-11.5125
▁romanische	-11.5128
▁alleine	-11.5131
▁spiegel	-11.5132
enz	-11.5132
▁keramik	-11.5133
talbahn	-11.5135
▁op	-11.5138
▁andré	-11.5141
▁sorgen	-11.5141
merk	-11.5144
▁ämter	-11.5145
▁bischöfe	-11.5147
▁liter	-11.5152
▁übliche	-11.5153
▁erkenntnisse	-11.5153
▁pflanze	-11.5153
hardt	-11.5155
▁stationiert	-11.5156
▁günter	-11.5161
▁bundesregierung	-11.5161
▁unterzeichnete	-11.5166
▁leichtathletik	-11.5166
nd	-11.5167
greift	-11.517
▁700	-11.5171
▁bestellt	-11.5171
▁siegfried	-11.5171
▁großvater	-11.5177
▁besitzung	-11.518
▁sichern	-11.518
lü	-11.5181
▁bur	-11.5182
▁erwartet	-11.5184
▁prä	-11.5187
▁entwarf	-11.5188
flugzeug	-11.519
▁ungarischen	-11.519
▁unsere	-11.5191
▁pommern	-11.5192
▁okres	-11.5193
▁verzichtete	-11.5198
▁paderborn	-11.5199
▁wirklich	-11.5199
▁gedicht	-11.52
technische	-11.5202
▁hubraum	-11.5205
teilung	-11.5205
▁alternativ	-11.5207
▁schach	-11.5211
aw	-11.5214
▁maße	-11.522
mutter	-11.5221
tschechoslowakei	-11.5222
setzung	-11.5223
eich	-11.5226
rlei	-11.5227
▁harz	-11.523
▁voraussetzung	-11.523
▁therapie	-11.5231
nord	-11.5232
zunehmen	-11.5238
▁bauarbeite	-11.5242
▁weinbau	-11.5243
behörden	-11.5245
ney	-11.525
▁klage	-11.5251
▁fleisch	-11.5251
▁douglas	-11.5251
▁frankreichs	-11.5254
sz	-11.5254
▁ulm	-11.5254
welle	-11.526
▁verlaufen	-11.5263
holen	-11.527
▁fels	-11.5272
▁peking	-11.5273
▁kranken	-11.5275
▁gerufen	-11.5278
▁bedroht	-11.5279
▁gegenstände	-11.528
▁botschaft	-11.5281
wirken	-11.5284
besitzer	-11.5284
lä	-11.5293
frequenz	-11.5294
▁beziehen	-11.5295
▁meldete	-11.5296
▁berater	-11.5297
rou	-11.5298
▁roland	-11.5298
300	-11.5298
▁champions	-11.5299
illa	-11.53
herr	-11.53
▁beobachten	-11.5302
▁verbinden	-11.5303
▁tennis	-11.5305
▁hängt	-11.5309
tre	-11.5311
▁berufliche	-11.5313
▁verbundenen	-11.5315
klassen	-11.5316
▁jesu	-11.532
▁dauert	-11.5322
▁may	-11.5324
▁kol	-11.533
▁ali	-11.5331
▁gießen	-11.5332
▁siedlungs	-11.534
kommen	-11.534
hofen	-11.5341
▁dj	-11.5343
▁var	-11.5344
▁ausgedehnte	-11.5344
strahlung	-11.5345
▁eingeschränkt	-11.5348
▁wurzeln	-11.5349
▁bedeutendste	-11.535
mut	-11.5352
▁block	-11.5352
▁eindruck	-11.5354
▁fahr	-11.5365
bein	-11.5365
▁bundestag	-11.5367
▁journalisten	-11.5368
▁aufstand	-11.537
▁ausdehnung	-11.5371
▁ross	-11.5374
▁abgrenzung	-11.5375
▁erneute	-11.5375
▁menschliche	-11.5376
▁ausgangspunkt	-11.5377
oli	-11.5378
▁finanzierung	-11.5381
▁bucht	-11.5384
flut	-11.5385
▁california	-11.5386
modus	-11.5388
sicherung	-11.5388
▁mengen	-11.5389
▁genehmigung	-11.5392
▁geschlossene	-11.5392
▁freiwillige	-11.5402
▁lewis	-11.5405
kos	-11.5406
▁1831	-11.5406
übernahme	-11.5408
▁maximale	-11.541
start	-11.5412
▁versteh	-11.5414
▁zeitweilig	-11.5415
▁besuchen	-11.5416
▁meistertitel	-11.5417
▁saar	-11.5417
69	-11.5418
stift	-11.5421
▁saarbrücken	-11.5421
dl	-11.5423
rücken	-11.5426
▁creek	-11.5427
▁nordische	-11.5433
▁seat	-11.5435
▁malerei	-11.5441
▁army	-11.5445
▁preise	-11.5446
leute	-11.5448
▁untergrund	-11.5448
▁moor	-11.5449
▁aufführung	-11.545
▁neo	-11.545
▁wies	-11.5451
▁geschah	-11.5455
fließt	-11.5458
▁global	-11.5459
▁kolonie	-11.5461
▁interpretation	-11.5461
faktor	-11.5469
▁erbe	-11.5469
▁verkaufen	-11.5471
▁zweifel	-11.5474
▁erklären	-11.5476
▁ausgaben	-11.548
tat	-11.5483
ā	-11.5485
▁anbau	-11.5485
▁milch	-11.5486
▁kreuzung	-11.5491
▁oldenburg	-11.5492
professor	-11.5496
▁back	-11.5496
wer	-11.5497
küste	-11.5497
▁fehl	-11.5499
▁neckar	-11.5501
▁angetrieben	-11.5501
▁materialien	-11.5502
mäßig	-11.5502
post	-11.5506
▁weiten	-11.5506
pin	-11.551
bücher	-11.5515
teams	-11.5517
▁palais	-11.5518
▁sonntag	-11.5518
▁bezeichneten	-11.5519
▁aufenthalt	-11.552
▁valley	-11.5521
▁gelangt	-11.5523
▁costa	-11.5525
▁pennsylvania	-11.5531
▁kritiken	-11.5531
▁dialekt	-11.5534
▁roll	-11.5535
var	-11.5537
paar	-11.5538
ib	-11.5541
▁irische	-11.5541
dom	-11.5547
zel	-11.5548
▁richtet	-11.5552
historiker	-11.5554
▁wären	-11.5555
▁zurückzu	-11.5558
▁damen	-11.5559
▁haar	-11.5565
▁selbständige	-11.5565
▁vorgehen	-11.5565
waffen	-11.5566
▁restaurierung	-11.5569
baden	-11.5569
▁anwendungen	-11.557
kas	-11.557
▁verzicht	-11.557
zentrale	-11.5573
▁toren	-11.5573
fehler	-11.5576
▁information	-11.5577
▁eiserne	-11.5578
wan	-11.5579
▁prince	-11.5581
▁endspiel	-11.5584
▁längs	-11.5585
zy	-11.5586
▁kopenhagen	-11.5589
▁chance	-11.5592
▁liberalen	-11.5595
▁professionelle	-11.5596
▁königsberg	-11.5596
▁kaufmann	-11.5597
▁colorado	-11.5601
▁vereinen	-11.5602
▁schlechten	-11.5603
▁teilnehmen	-11.5603
▁landesregierung	-11.5603
maßnahmen	-11.5606
▁amtierende	-11.5606
▁touristen	-11.5606
▁lösen	-11.5611
dü	-11.562
▁reiter	-11.562
shi	-11.5622
strecken	-11.5623
▁grundriss	-11.5625
▁ähnlichkeit	-11.5626
▁parks	-11.5629
▁begründer	-11.5631
▁spezial	-11.5633
▁begleitete	-11.5637
▁gebäuden	-11.5642
▁hände	-11.5648
▁sound	-11.5648
▁stämme	-11.5649
▁fördern	-11.5652
spiegel	-11.5652
▁derartige	-11.5652
ß	-11.5654
▁circa	-11.566
gemeinschaften	-11.5665
▁überführt	-11.5671
▁kai	-11.5671
besitz	-11.5677
▁ortsname	-11.568
▁forscher	-11.568
kamp	-11.5684
tische	-11.5691
▁opern	-11.5691
▁unterhält	-11.5695
männer	-11.5696
spricht	-11.5696
▁pflanzenart	-11.5697
▁manchester	-11.5697
▁sammelte	-11.5698
▁kämpfe	-11.5699
▁ausrüstung	-11.5699
▁hinweg	-11.5701
▁council	-11.5701
filme	-11.5702
▁gebunden	-11.5703
▁stadtmauer	-11.5704
▁feiern	-11.5707
▁vulkan	-11.5708
▁reihen	-11.5711
200	-11.5712
hol	-11.5717
▁1825	-11.5722
▁massive	-11.5722
projekte	-11.5723
▁87	-11.5724
▁heil	-11.5728
▁laufen	-11.5733
▁hochwasser	-11.5735
▁model	-11.5741
▁auflage	-11.5745
▁erwies	-11.5745
▁les	-11.5746
▁willen	-11.5746
▁sächsische	-11.5747
raufhin	-11.5751
8.000	-11.5755
▁kollegen	-11.5759
mb	-11.576
▁pfund	-11.5762
nar	-11.5763
scha	-11.5763
flotte	-11.5766
▁gulden	-11.5767
▁gesperrt	-11.5772
▁töten	-11.5772
▁bestattet	-11.5772
▁unterwegs	-11.5773
▁markiert	-11.5773
▁verbliebene	-11.5775
▁ansässige	-11.5776
▁helm	-11.5783
situation	-11.5788
▁posten	-11.5789
läufer	-11.5791
lon	-11.5796
▁bistums	-11.5797
transport	-11.5798
gelb	-11.5798
▁1833	-11.58
▁plätze	-11.5802
▁dörfern	-11.5802
text	-11.5804
wig	-11.5805
▁jahrzehnt	-11.5807
▁management	-11.5808
▁diplomatische	-11.5809
▁sturz	-11.5811
▁passagiere	-11.5811
frau	-11.5812
▁bezeichnungen	-11.5812
partnerschaften	-11.5812
▁nachkriegszeit	-11.5813
▁kritisierte	-11.5813
▁gerne	-11.5817
▁instrumente	-11.5817
▁landete	-11.5819
▁bekommt	-11.5822
block	-11.5826
▁prozesse	-11.5827
rede	-11.5829
▁partien	-11.5835
▁metro	-11.5835
▁vergessen	-11.5836
▁stetig	-11.5837
▁aufhebung	-11.5838
▁harald	-11.5838
▁vornehmlich	-11.5838
▁schräg	-11.584
▁tätigkeiten	-11.5842
▁dienste	-11.5843
▁niedriger	-11.5847
▁moment	-11.5847
▁produzenten	-11.5848
▁soweit	-11.5848
▁ref	-11.5848
▁oberflächen	-11.5852
▁ansiedlung	-11.5852
oxid	-11.5854
steine	-11.5854
▁geschlechts	-11.5855
▁eintritt	-11.5855
loh	-11.5856
▁berechnung	-11.5856
summe	-11.5858
fang	-11.5861
▁zunehmende	-11.5862
zyklus	-11.5862
800	-11.5863
▁umbenennung	-11.5863
▁strand	-11.5863
▁verleger	-11.5864
▁1-	-11.5866
▁miller	-11.5869
▁little	-11.5876
▁1817	-11.5877
fern	-11.588
▁bal	-11.588
▁gelungen	-11.5886
▁praktische	-11.5887
▁bu	-11.5887
▁life	-11.5891
▁beheimatet	-11.5892
stimmen	-11.5893
kapazität	-11.5895
▁geringere	-11.5896
▁labor	-11.5896
meier	-11.5896
zweig	-11.59
▁adel	-11.5901
ans	-11.5904
▁bekleidete	-11.5905
▁stehende	-11.5907
▁ruhe	-11.5909
▁gesicht	-11.591
são	-11.5912
▁zahn	-11.5915
▁power	-11.5921
▁research	-11.5922
marke	-11.5925
▁diejenige	-11.5928
▁1822	-11.5931
mund	-11.5932
▁ozean	-11.5932
▁vorteile	-11.5933
▁umsatz	-11.5934
▁arbeitnehmer	-11.5935
▁produzent	-11.5937
künstler	-11.5938
▁negativ	-11.594
▁masse	-11.5941
vorpommern	-11.5941
▁endlich	-11.5942
essen	-11.5944
▁schwimm	-11.5949
▁fred	-11.595
log	-11.5951
▁ruine	-11.5952
▁sandstein	-11.5952
▁kalten	-11.5953
▁erzeugen	-11.5953
▁schwestern	-11.5954
▁veränderte	-11.5955
▁anteile	-11.5957
antrieb	-11.596
▁aspekte	-11.5961
▁jenseits	-11.5965
▁jim	-11.5966
▁angehörige	-11.5967
▁zwanzig	-11.5968
▁schatten	-11.5972
presse	-11.5974
▁mund	-11.5975
▁offiziere	-11.5976
▁pazifische	-11.5976
▁opposition	-11.598
▁sultan	-11.5982
▁testament	-11.5983
▁schöne	-11.5983
▁jugoslawien	-11.5984
▁vorderen	-11.5984
▁conrad	-11.5984
▁sauerstoff	-11.5994
▁tournee	-11.5995
▁sciences	-11.6
app	-11.6001
▁sklaven	-11.6002
▁aufnehmen	-11.6003
▁sam	-11.6004
▁mittelalterlich	-11.6006
▁sitzen	-11.6006
▁konkurrent	-11.6006
komplex	-11.6008
schul	-11.6011
rechts	-11.6012
▁messen	-11.6014
▁fassade	-11.6015
▁solle	-11.6015
▁transportiert	-11.6015
▁binnen	-11.602
gh	-11.6022
▁individuelle	-11.6022
▁flüchtlinge	-11.6025
▁diözese	-11.6031
▁tot	-11.6031
produkt	-11.6031
▁versorgung	-11.6031
▁kuba	-11.6032
▁sucht	-11.6032
▁präfektur	-11.6032
▁landesstraße	-11.6033
▁formal	-11.6035
▁lernen	-11.6035
hr	-11.6037
▁großherzogtum	-11.6039
▁nahen	-11.6039
▁haltung	-11.6043
yl	-11.6044
glas	-11.6045
▁habilitierte	-11.6045
▁siege	-11.6045
begriff	-11.6046
▁bueno	-11.6046
▁verblieb	-11.6046
▁rolf	-11.6047
sarbeiten	-11.6049
zusetzen	-11.6053
▁chemnitz	-11.6054
▁gedacht	-11.6055
▁chefredakteur	-11.6056
▁gäste	-11.6057
▁bernd	-11.6057
▁amtes	-11.6058
▁floh	-11.6059
▁konkrete	-11.606
▁pin	-11.606
peter	-11.606
▁trennte	-11.6063
▁apostolische	-11.6068
▁aufweist	-11.6069
▁championship	-11.607
▁fulda	-11.607
gehen	-11.6071
stationen	-11.6071
▁worten	-11.6072
▁beton	-11.6073
▁absicht	-11.6073
▁veränderung	-11.6073
▁schnitt	-11.6074
my	-11.6074
ons	-11.6076
▁adels	-11.6078
treiben	-11.6079
▁ersetzen	-11.6082
dio	-11.6084
▁hoffmann	-11.6084
▁berichten	-11.6088
▁1805	-11.609
eli	-11.6096
▁telefon	-11.6096
verbot	-11.6097
heinz	-11.6097
▁reinhard	-11.61
▁kolonien	-11.6101
▁pferd	-11.6102
musiker	-11.6107
▁marmor	-11.6107
▁stadtteile	-11.611
▁dänische	-11.6115
▁08	-11.6116
▁bezeichnen	-11.612
▁125	-11.6121
iden	-11.6123
▁schwanz	-11.6124
autor	-11.6125
▁speicher	-11.6125
▁umfassen	-11.6126
bet	-11.6127
▁statistik	-11.6129
▁erkannt	-11.6129
ava	-11.6131
tischen	-11.6135
pos	-11.6135
▁erben	-11.6136
▁geehrt	-11.6136
▁fotografie	-11.6137
▁napoleon	-11.6142
▁rettungs	-11.6146
▁gerät	-11.6148
elle	-11.615
▁bekanntheit	-11.6151
▁soldat	-11.6152
▁winkel	-11.6153
▁20.000	-11.6155
▁schwäbisch	-11.6157
▁motoren	-11.6161
vier	-11.6161
▁françois	-11.6161
▁holland	-11.6162
▁luis	-11.6165
elli	-11.6165
▁tieren	-11.6166
▁namentlich	-11.6167
forschungen	-11.6168
cin	-11.6168
▁verzichtet	-11.617
▁home	-11.6171
▁grundlegende	-11.6173
ersdorf	-11.6174
▁gleis	-11.6176
▁sitzung	-11.6176
▁kim	-11.6177
▁tri	-11.618
alen	-11.6182
▁jacques	-11.6184
▁kreisstadt	-11.6186
▁mythologie	-11.6186
▁oxford	-11.6186
▁fame	-11.6189
20	-11.6191
▁gegebenen	-11.6195
mangel	-11.6196
▁lautete	-11.6197
hop	-11.6199
▁hu	-11.6199
▁expedition	-11.62
▁premiere	-11.6204
▁1802	-11.6208
▁1824	-11.6209
▁52	-11.6212
▁1600	-11.6212
▁vorzeitig	-11.6214
700	-11.6215
▁eventuell	-11.6219
▁human	-11.6219
▁befahren	-11.622
reihen	-11.6222
fisch	-11.6228
▁heißen	-11.6228
▁genauer	-11.623
▁dominiert	-11.623
▁orchestra	-11.6237
▁fränkische	-11.6238
▁baron	-11.6241
▁seitens	-11.6245
störungen	-11.6248
▁ereignis	-11.6248
cke	-11.625
▁schiffen	-11.6252
▁gespräch	-11.6253
▁geraten	-11.6253
▁benötigte	-11.6254
▁pri	-11.6256
▁gebiets	-11.626
▁missouri	-11.6261
schiffe	-11.6262
decke	-11.6263
▁archiv	-11.6266
▁blasonierung	-11.6267
▁distanz	-11.6267
▁stattfinden	-11.6268
▁hirsch	-11.6273
vermögen	-11.6273
▁ländliche	-11.6273
▁eroberte	-11.6275
▁zerstörer	-11.6276
▁sex	-11.6277
läufe	-11.6279
▁taylor	-11.628
ington	-11.628
technisch	-11.6281
▁talent	-11.6282
▁dunkel	-11.6282
hor	-11.6284
▁spanier	-11.6286
vit	-11.629
▁inhaber	-11.6293
▁kpd	-11.6294
▁äußerte	-11.6295
▁getreide	-11.63
▁konzentrierte	-11.6301
▁rande	-11.6303
▁ausgeliefert	-11.6305
▁mathematiker	-11.6307
läuft	-11.6308
▁byzantinische	-11.6311
▁florenz	-11.6311
▁angegriffen	-11.6316
▁1811	-11.6316
▁gefallen	-11.6317
▁wuppertal	-11.6317
gast	-11.632
organ	-11.6321
▁arena	-11.6322
▁zimmer	-11.6325
▁osnabrück	-11.6326
▁beinahe	-11.6326
▁orientiert	-11.6327
▁beamten	-11.6332
▁heu	-11.6333
▁motiv	-11.6335
▁beenden	-11.6337
▁entstammte	-11.6339
▁stadtbezirk	-11.6339
▁far	-11.6339
▁96	-11.6342
sack	-11.6342
wände	-11.6344
▁kurfürsten	-11.6345
▁zugeteilt	-11.6348
▁erschossen	-11.6351
▁weiblich	-11.6351
▁stephen	-11.6355
ls	-11.6357
schlacht	-11.6359
▁komödie	-11.6361
▁gesch	-11.6362
▁republikanische	-11.6362
▁vizepräsident	-11.6362
ance	-11.6363
ständigen	-11.6365
▁könige	-11.6366
ruf	-11.6368
▁vordergrund	-11.6368
▁konzipiert	-11.6369
▁helden	-11.6369
▁beruhen	-11.6369
▁befindliche	-11.6369
strukturen	-11.637
▁engen	-11.6372
ett	-11.6374
▁asiaten	-11.6374
▁vertretern	-11.6377
▁ausgelöst	-11.638
▁psychologie	-11.6381
▁ansehen	-11.6387
▁wrestling	-11.6388
▁danzig	-11.6394
▁geschwister	-11.6394
eur	-11.6395
▁hotels	-11.6398
▁blütezeit	-11.64
▁abgehalten	-11.64
▁frisch	-11.6401
▁kunststoff	-11.6402
▁offizier	-11.6403
genossenschaft	-11.6403
▁aires	-11.6404
▁abwehr	-11.6404
▁demokratie	-11.6405
▁total	-11.6406
▁personenverkehr	-11.6411
oper	-11.6411
▁erkrankung	-11.6412
▁angekündigt	-11.6412
▁samtgemeinde	-11.6413
▁niemand	-11.6414
▁mur	-11.6415
▁verständnis	-11.642
rode	-11.6423
▁stock	-11.6427
sänger	-11.6427
▁1809	-11.6427
▁brunnen	-11.6427
▁1826	-11.6429
▁streng	-11.643
sprung	-11.643
anschluss	-11.6431
▁angehörigen	-11.6432
▁fett	-11.6433
▁entwürfe	-11.6436
▁katholiken	-11.6438
▁versicherungs	-11.6439
▁reichweite	-11.6442
▁taucht	-11.6443
▁gemeint	-11.6444
eishockeyspieler	-11.645
▁unesco	-11.6451
ungarn	-11.6451
▁wachstum	-11.6454
handlung	-11.6455
▁werft	-11.6456
regiments	-11.6458
▁nordwest	-11.6458
sil	-11.6462
▁zugehörigkeit	-11.6463
lebens	-11.6466
▁kirchspiel	-11.6473
▁prüfung	-11.6473
▁null	-11.6475
▁betreiber	-11.6475
▁spenden	-11.6475
tt	-11.6475
abel	-11.6476
kommando	-11.6477
heimer	-11.6486
verteidigung	-11.6486
▁haft	-11.6488
▁pest	-11.649
mans	-11.6491
▁systems	-11.6493
▁03	-11.6494
▁antreten	-11.6496
▁bemerkenswert	-11.6498
▁weser	-11.6501
▁strukturen	-11.6501
▁vermögen	-11.6505
▁drogen	-11.6506
▁inklusive	-11.6514
stan	-11.6516
ali	-11.6518
verlust	-11.6519
▁aufklärung	-11.6519
▁mol	-11.6519
▁übergab	-11.652
▁jordan	-11.6521
▁wann	-11.6521
▁municipio	-11.6521
▁prototyp	-11.6525
▁urkunden	-11.6525
▁hinsicht	-11.6527
▁einstige	-11.6528
▁heut	-11.6528
▁motive	-11.6529
▁voran	-11.6529
▁suchen	-11.6531
▁prix	-11.6531
wy	-11.6532
muster	-11.6533
ringen	-11.6533
▁nachfolgenden	-11.6534
▁blauen	-11.6535
▁oberste	-11.6539
▁dorn	-11.6541
tas	-11.6542
▁begründung	-11.6543
▁fu	-11.6547
owitsch	-11.6548
▁vergrößert	-11.6549
▁gutes	-11.655
▁angriffe	-11.6554
▁frequenz	-11.6556
▁56	-11.6556
▁etabliert	-11.6559
▁theologe	-11.6561
▁koordinaten	-11.6562
▁yorker	-11.6563
▁zählten	-11.6564
▁freiwilligen	-11.6565
smitglied	-11.6565
funktionen	-11.6565
▁wolle	-11.6566
▁gräfin	-11.6567
▁päpstliche	-11.6568
▁hinteren	-11.6568
▁ermordung	-11.6572
▁codice	-11.6572
link	-11.6575
▁achten	-11.6578
▁ortsteilen	-11.658
▁reihenfolge	-11.658
▁stellvertreter	-11.6582
▁nation	-11.6582
▁nachweisbar	-11.6582
▁produzieren	-11.6585
▁vorgeschichte	-11.6587
▁junger	-11.659
▁niederschlag	-11.659
▁verpflichtung	-11.659
▁greifswald	-11.6595
▁kommunikations	-11.6596
▁eingeladen	-11.6597
▁sohnes	-11.6597
ativ	-11.6601
▁areal	-11.6602
volumen	-11.6603
▁geschehen	-11.6604
vielfalt	-11.6605
▁thüringer	-11.6605
400	-11.6606
uri	-11.6607
▁gegenwärtig	-11.6607
status	-11.6607
tempel	-11.6608
▁ähnelt	-11.6609
▁population	-11.6611
▁karls	-11.6612
▁renoviert	-11.6614
▁eingeteilt	-11.6615
blätter	-11.6615
▁empfangen	-11.6616
konstruktion	-11.6618
schreibung	-11.6619
nähe	-11.6622
brigade	-11.6623
▁verblieben	-11.6625
▁freundin	-11.6626
▁urban	-11.6626
▁kategorien	-11.6628
▁sizilien	-11.663
▁angewendet	-11.6631
artige	-11.6634
▁michigan	-11.6634
▁viii	-11.6635
▁täter	-11.6638
eln	-11.6639
▁flugplatz	-11.6639
▁instrumental	-11.664
▁hauptdarsteller	-11.664
▁alex	-11.6644
▁läuft	-11.6645
cken	-11.6645
▁0-	-11.6645
▁breiter	-11.6649
▁einge	-11.6651
▁stuttgarter	-11.6652
lagern	-11.6652
▁gefecht	-11.6652
zeug	-11.6652
▁kal	-11.6653
▁überlebende	-11.6656
beziehung	-11.6658
lagen	-11.6658
haut	-11.6659
▁anerkannte	-11.666
schaltung	-11.6661
▁mario	-11.6661
ova	-11.6666
▁abschloss	-11.6667
ritz	-11.6667
▁aufschwung	-11.6668
▁zeitlich	-11.667
zugehen	-11.667
ire	-11.6671
▁jegliche	-11.6671
▁wohnhaus	-11.6673
steuerung	-11.6673
owski	-11.6677
▁gene	-11.6677
▁erzählung	-11.6678
▁lesen	-11.668
▁komplette	-11.668
▁vertrieb	-11.6681
▁karte	-11.6682
▁romane	-11.6682
▁volksrepublik	-11.6683
▁steil	-11.6683
▁mühle	-11.6685
▁guter	-11.6692
flüge	-11.6695
▁vollkommen	-11.6695
▁auftrat	-11.6697
ging	-11.6699
▁inhaftiert	-11.6703
▁zwecke	-11.6703
reisen	-11.6703
▁badische	-11.6704
▁landrat	-11.6704
ester	-11.6705
▁erfindung	-11.6706
▁leon	-11.671
speicher	-11.6711
▁renovierung	-11.6713
▁drehbuchautor	-11.6715
▁argentinische	-11.6715
▁woiwodschaft	-11.6715
▁ursprungs	-11.6715
lay	-11.6716
▁prägte	-11.6717
▁mannes	-11.672
sor	-11.6721
▁letztendlich	-11.6722
vögel	-11.6723
▁america	-11.6724
▁abhängigkeit	-11.6727
cal	-11.6728
▁inszenierung	-11.6732
▁nachlass	-11.6732
▁wettkampf	-11.6737
▁deutliche	-11.6739
ial	-11.674
▁plante	-11.674
sfeld	-11.674
▁basketball	-11.6742
▁faust	-11.6743
▁erteilt	-11.6743
ona	-11.6744
gall	-11.6746
▁erhöhen	-11.6747
bb	-11.6749
säule	-11.6749
vorsitzenden	-11.675
▁umzug	-11.6754
▁auffällig	-11.6757
▁illinois	-11.6761
handlungen	-11.6762
▁oskar	-11.6764
▁ku	-11.6764
▁gestiftet	-11.6764
▁benachbarte	-11.6765
klub	-11.6767
▁erwin	-11.6767
▁verbrechen	-11.6769
▁herrn	-11.677
▁abbildung	-11.6772
▁hot	-11.6772
▁hochschul	-11.6774
▁turin	-11.6777
sektor	-11.6777
sbereich	-11.6777
▁mexikanische	-11.6784
▁erhebt	-11.6788
▁befreit	-11.6789
rates	-11.6789
beginn	-11.679
▁publizierte	-11.679
rose	-11.679
▁gross	-11.6793
quelle	-11.68
▁knoten	-11.68
▁höhlen	-11.6802
▁export	-11.6814
▁tür	-11.6818
feldern	-11.682
▁universal	-11.6824
▁mütter	-11.6825
▁gearbeitet	-11.6827
▁traum	-11.6828
▁skulpturen	-11.6828
ín	-11.683
verfassung	-11.683
▁marcel	-11.6835
dichte	-11.6835
▁gerichtet	-11.6835
▁weltmeister	-11.6839
▁organische	-11.684
▁geräte	-11.684
▁echte	-11.6841
▁erkennt	-11.6844
▁botanische	-11.6845
▁verletzung	-11.6847
▁einfacher	-11.6847
furt	-11.6848
▁wechseln	-11.685
▁eben	-11.685
tam	-11.6851
ō	-11.6852
▁69	-11.6852
europameister	-11.6853
▁schickte	-11.6853
▁mars	-11.6854
▁kurfürst	-11.6855
▁schnelle	-11.6857
marathon	-11.6858
▁kontinent	-11.686
▁beendig	-11.6861
gelernt	-11.6867
▁unverändert	-11.6867
▁grande	-11.6868
▁medaille	-11.6872
▁kroatien	-11.6873
schutzgebiet	-11.6879
▁stürzte	-11.6879
▁mount	-11.688
▁58	-11.688
▁moderner	-11.688
▁zürcher	-11.6881
▁law	-11.6883
zutreten	-11.6885
▁roh	-11.6886
▁platten	-11.6887
▁gültige	-11.6889
▁episoden	-11.689
lam	-11.6891
▁schriftliche	-11.6892
▁nassau	-11.6893
▁hingerichtet	-11.6894
▁vorstands	-11.6896
nationalpark	-11.6897
▁ursachen	-11.6898
kern	-11.6899
▁steiermark	-11.69
▁forderungen	-11.6905
▁wohnhäuser	-11.6908
▁protagonist	-11.6908
▁tschechisch	-11.6909
▁verbindungs	-11.691
▁nürnberger	-11.691
▁zeichnet	-11.6911
▁stattfindende	-11.6911
aka	-11.6911
▁salzburger	-11.6913
rio	-11.6913
▁hauptsitz	-11.6914
▁gran	-11.6915
▁blumen	-11.6918
▁einzugsgebiet	-11.6921
▁dementsprechend	-11.6921
▁orange	-11.6924
▁schwarzer	-11.6924
deck	-11.6924
esch	-11.6925
festival	-11.6926
▁gor	-11.6927
▁sammeln	-11.6931
bla	-11.6932
sha	-11.6932
linger	-11.6933
▁abenteuer	-11.6934
gin	-11.6934
▁überall	-11.6935
tiere	-11.6935
stehen	-11.6936
lie	-11.6937
▁emden	-11.6941
▁berief	-11.6941
▁spezialisiert	-11.6944
▁haushalt	-11.6945
▁elektrisch	-11.6946
ž	-11.6947
▁hammer	-11.6949
▁blei	-11.6949
▁konfession	-11.6953
▁night	-11.6958
besetzung	-11.6958
▁stimmte	-11.6958
sein	-11.6958
schanze	-11.696
tausch	-11.6963
▁1790	-11.6963
vater	-11.6963
poli	-11.6964
▁eingenommen	-11.6966
▁ausländer	-11.6972
trakt	-11.6974
▁speyer	-11.6974
▁ausscheiden	-11.6981
▁lyon	-11.6987
▁generalmajor	-11.6988
filter	-11.6992
▁förder	-11.6992
▁male	-11.6995
▁vermittelt	-11.6996
▁besatzungs	-11.6997
▁abgebildet	-11.6999
▁bauch	-11.7003
holt	-11.7005
dd	-11.7005
▁orientierte	-11.7007
▁stanley	-11.7008
berge	-11.701
▁vorhandene	-11.7013
▁tausend	-11.7013
▁anpassung	-11.7014
▁trio	-11.7014
▁förderte	-11.7015
kontrolle	-11.7017
ão	-11.7017
olo	-11.7021
▁verarbeitet	-11.7022
▁1819	-11.7022
▁physikalische	-11.7023
▁scharf	-11.7024
▁unbekannte	-11.7024
▁fertig	-11.7028
szeit	-11.7028
▁gefangenschaft	-11.7029
▁details	-11.7031
▁entlassung	-11.7035
▁syrien	-11.7035
▁howard	-11.7035
▁rainer	-11.7037
zugeben	-11.7037
lia	-11.7042
▁series	-11.7042
▁lady	-11.7043
▁350	-11.7044
macher	-11.7044
▁mandat	-11.7045
▁bauart	-11.7048
▁gescheitert	-11.7048
▁existierende	-11.705
▁schlagzeug	-11.7051
▁admiral	-11.7053
▁führungs	-11.7053
▁verteidigen	-11.7055
gletscher	-11.706
rei	-11.7064
▁kindergarten	-11.7064
▁österreichisch	-11.7065
▁march	-11.7067
▁protestantische	-11.7069
▁hochschulen	-11.707
klingen	-11.707
gräber	-11.7071
asch	-11.7072
▁dinge	-11.7072
▁marcus	-11.7072
▁mitunter	-11.7073
▁vorfeld	-11.7075
▁doppelt	-11.7076
▁verwandtschaft	-11.7076
▁hauptrollen	-11.7078
▁fahrrad	-11.708
▁verfolgte	-11.708
▁abfahrt	-11.708
bin	-11.7082
ete	-11.7084
prinzip	-11.7084
▁verstärkte	-11.7085
gehabt	-11.7089
▁wladimir	-11.7089
▁glatt	-11.7091
scheibe	-11.7095
▁1801	-11.7095
▁mathematische	-11.7095
▁aussicht	-11.7096
▁betont	-11.7096
▁unterirdische	-11.7097
allee	-11.7099
▁endgültige	-11.7102
binden	-11.7103
▁caesar	-11.7103
tig	-11.7105
ward	-11.7109
▁leichten	-11.7109
kraut	-11.7111
▁statistisch	-11.7111
▁manga	-11.7114
ret	-11.7115
▁entstehende	-11.7116
▁rief	-11.7117
▁fraktion	-11.7117
quellen	-11.7118
kompanie	-11.7118
damm	-11.712
hund	-11.7122
inisterpräsident	-11.7124
▁spiels	-11.7128
▁unmöglich	-11.7128
▁temperaturen	-11.7129
▁clemens	-11.713
ati	-11.713
▁geistes	-11.7131
▁übertrug	-11.7137
▁kessel	-11.7138
▁fortgesetzt	-11.7138
▁besetzte	-11.714
▁rechteckige	-11.7143
0.000	-11.7145
▁daß	-11.7145
▁hinterließ	-11.7145
▁synonym	-11.7146
▁ban	-11.7146
wie	-11.7146
▁bulgarien	-11.7149
▁wunder	-11.7153
lig	-11.7153
▁befasste	-11.7153
▁norddeutsche	-11.7158
▁centre	-11.7165
▁organ	-11.717
▁banken	-11.7171
architektur	-11.7172
fluggesellschaft	-11.7173
▁ordentliche	-11.7176
▁bewaldet	-11.7176
bes	-11.7177
▁sto	-11.7178
räder	-11.7179
tür	-11.7182
00	-11.7183
▁befasst	-11.7184
pflicht	-11.7188
▁ehrenamtliche	-11.7188
▁spielern	-11.7189
▁hanau	-11.7189
konzept	-11.7193
▁eichen	-11.7196
key	-11.7197
▁galerie	-11.7198
kt	-11.7198
▁wahrgenommen	-11.7199
▁mikro	-11.7199
suchen	-11.7202
▁verschoben	-11.7202
-1-	-11.7206
ator	-11.7207
▁vorsitz	-11.7211
▁invasion	-11.7212
▁rené	-11.7214
stad	-11.7215
▁abgesetzt	-11.7215
▁eric	-11.7222
ies	-11.7226
▁marken	-11.7226
▁interessiert	-11.7228
schriftstellerin	-11.723
▁winterspielen	-11.7232
▁vermittlung	-11.7235
▁geologie	-11.7235
▁schlagzeuger	-11.7235
uff	-11.7237
▁gesamtwertung	-11.7246
▁qualifizieren	-11.7247
▁gefangenen	-11.7248
▁fußballverein	-11.7249
bare	-11.7249
bericht	-11.7249
▁vorlage	-11.7253
▁christ	-11.7255
day	-11.7257
our	-11.7257
▁000	-11.7259
▁betreute	-11.7259
sum	-11.7261
▁sprung	-11.7262
▁88	-11.7263
dos	-11.7263
▁gesetze	-11.7264
eder	-11.7267
▁roter	-11.7267
schriften	-11.7267
wm	-11.7268
jagd	-11.7272
▁1804	-11.7273
▁neapel	-11.7275
▁fälle	-11.7275
stoß	-11.7276
hp	-11.7278
marine	-11.7281
ergebnisse	-11.7282
cus	-11.7282
▁schottische	-11.7285
▁spitz	-11.7285
600	-11.7288
▁riesige	-11.7292
▁tote	-11.7292
▁publiziert	-11.7293
▁hamilton	-11.7295
▁erdgeschoss	-11.7296
▁erzählungen	-11.7296
▁frucht	-11.7299
▁ingenieur	-11.73
▁zugehörige	-11.73
▁verglichen	-11.7301
stellungen	-11.7301
▁rue	-11.7302
▁kleinstadt	-11.7304
bat	-11.7304
▁vorlesungen	-11.7305
▁texten	-11.7306
7.000	-11.7309
▁redakteur	-11.7315
kov	-11.7316
rate	-11.7318
lands	-11.7318
▁lebende	-11.7322
▁massiv	-11.7324
▁metropolitan	-11.7325
mas	-11.7326
▁pra	-11.733
▁ebenen	-11.733
vil	-11.7331
house	-11.7331
▁71	-11.7331
▁konzentrations	-11.7334
▁eigenschaft	-11.7335
teich	-11.7338
▁einschränkung	-11.7338
▁gesetzes	-11.7339
▁niedergang	-11.734
str	-11.7343
▁öfter	-11.7344
▁antrieb	-11.7345
rück	-11.7348
schel	-11.7349
▁worms	-11.735
▁fe	-11.735
sturm	-11.735
▁ludwigshafen	-11.7351
▁gera	-11.7352
▁unterarten	-11.7354
müller	-11.7357
▁gras	-11.7357
▁kugel	-11.7359
▁roma	-11.736
▁münzen	-11.7362
▁entscheidungen	-11.7362
▁erschienene	-11.7364
▁adams	-11.7365
▁überlegung	-11.7368
▁peru	-11.7371
▁zerstörte	-11.7373
▁regelungen	-11.7373
red	-11.7377
▁verschwand	-11.738
cu	-11.738
krankheit	-11.7381
▁legion	-11.7381
ars	-11.7382
▁59	-11.7383
erich	-11.7388
burger	-11.739
verbrauch	-11.7392
▁gegenseitig	-11.7392
wat	-11.7393
▁kansas	-11.7393
eu	-11.7395
▁kommenden	-11.7395
flugzeuge	-11.7396
▁brian	-11.7397
▁kapazität	-11.7402
▁weichen	-11.7402
▁leichte	-11.7402
▁beschäftigung	-11.7403
▁angeführt	-11.7403
mission	-11.7404
▁erwachsenen	-11.7405
malerei	-11.7405
▁point	-11.7406
▁planeten	-11.7407
▁dichte	-11.7408
▁anzutreffen	-11.7411
▁gebietsreform	-11.7412
▁lateinische	-11.7412
▁stürmer	-11.7412
▁jeweilige	-11.7413
▁normale	-11.7414
kurs	-11.7417
bald	-11.7417
zeichnungen	-11.7419
versuch	-11.742
▁erlaubte	-11.7421
▁dei	-11.7421
einsätze	-11.7425
▁mangelnde	-11.7425
▁space	-11.7426
weilen	-11.7428
▁verlags	-11.7428
werten	-11.7428
▁bir	-11.7429
tes	-11.7432
ries	-11.7432
▁laufende	-11.7434
▁ziegel	-11.7436
▁innenraum	-11.7437
▁denken	-11.7438
▁places	-11.7439
▁wachsen	-11.7439
▁generationen	-11.7441
zog	-11.7441
▁gelöst	-11.7442
▁grundlegend	-11.7443
▁cv	-11.7443
▁wittenberg	-11.7446
vorkommen	-11.7447
▁1823	-11.7448
sgesetz	-11.7448
▁lateinisch	-11.7448
▁mon	-11.7452
▁komponenten	-11.7453
▁slawische	-11.7458
▁anführer	-11.746
▁kopie	-11.7461
▁wissenschafts	-11.7461
ikon	-11.7462
▁antwort	-11.7463
▁fußballnational	-11.7471
fr	-11.7472
▁mischung	-11.7476
▁castle	-11.748
hochschule	-11.7481
▁minderheit	-11.7481
▁zustande	-11.7482
▁bundesautobahn	-11.7485
▁reis	-11.7486
oberliga	-11.7488
▁unbe	-11.749
▁leib	-11.7493
▁patent	-11.7495
▁nrw	-11.7495
▁festland	-11.7498
▁warum	-11.7501
bewegungen	-11.7503
▁vereinbarung	-11.7504
ör	-11.7504
▁spring	-11.7505
rollen	-11.7505
regen	-11.7507
gewächse	-11.7508
▁konsul	-11.7512
syndrom	-11.7513
▁melodie	-11.7515
▁biathlon	-11.752
▁behauptet	-11.7521
▁professur	-11.7523
▁grosse	-11.7523
▁untere	-11.7523
pan	-11.7524
nia	-11.7525
wache	-11.7527
gab	-11.7529
▁irak	-11.7531
▁benutzte	-11.7536
▁fliegen	-11.7538
▁anwesend	-11.7539
▁gerichtsbezirk	-11.754
partnerschaft	-11.7545
▁erwartung	-11.7548
▁veranlasste	-11.7548
▁haag	-11.7549
▁schaden	-11.755
▁call	-11.755
▁autonome	-11.755
denkmal	-11.7551
▁vereinbart	-11.7551
▁überblick	-11.7553
abzeichen	-11.7554
programme	-11.7555
▁fuchs	-11.7556
ordens	-11.7557
▁wirklichkeit	-11.7557
▁stirb	-11.756
modelle	-11.7561
laufen	-11.7563
▁absatz	-11.7563
▁tr	-11.7565
▁vizemeister	-11.7568
alben	-11.7574
▁geist	-11.7574
licher	-11.7576
▁johanna	-11.7576
cl	-11.7578
▁vorhaben	-11.7579
▁serbien	-11.7582
▁sache	-11.7585
orgel	-11.7589
gestellt	-11.7592
tafel	-11.7592
▁trasse	-11.7593
▁verliebt	-11.7593
▁german	-11.7594
▁wählen	-11.7602
▁vorsprung	-11.7602
lt	-11.7603
▁training	-11.7603
frage	-11.7603
enstein	-11.7607
▁voller	-11.7607
ohr	-11.761
▁galten	-11.7612
▁meyer	-11.7612
▁beschreiben	-11.7615
▁schall	-11.7615
verbänden	-11.7617
▁verpflichtete	-11.7617
sey	-11.7619
▁anlehnung	-11.7619
▁montiert	-11.7619
▁durchgehend	-11.7621
cas	-11.7623
eisen	-11.7625
bögen	-11.7625
▁schriftlich	-11.7625
▁kreuzer	-11.7628
▁mainzer	-11.7628
▁niemals	-11.7629
▁antrat	-11.7629
büro	-11.7629
▁renommierte	-11.7632
▁gelbe	-11.7633
▁lissabon	-11.7634
▁zerstörten	-11.7637
▁ideal	-11.7638
▁andrew	-11.7639
▁koalition	-11.7641
▁begangen	-11.7641
kasten	-11.7644
▁öffnen	-11.7646
bro	-11.7648
▁54	-11.7654
▁kaiserslautern	-11.7656
▁statthalter	-11.7656
▁dozent	-11.7656
▁sterben	-11.7656
▁moore	-11.7658
gemeinden	-11.7661
akt	-11.7663
▁nachricht	-11.7664
▁satelliten	-11.7667
▁neunte	-11.7668
lek	-11.7668
▁reparatur	-11.767
span	-11.7674
▁pfarr	-11.7676
streit	-11.7679
▁kommunale	-11.7681
wel	-11.7681
▁stettin	-11.7685
▁jr	-11.7687
nat	-11.7687
gb	-11.7688
-2	-11.7688
▁dieselbe	-11.7688
ng	-11.7691
aufführungen	-11.7691
▁río	-11.7694
▁gefordert	-11.7694
▁hohem	-11.7695
breite	-11.7697
▁geklärt	-11.77
▁erwerb	-11.7701
▁qualifiziert	-11.7703
▁merkmal	-11.7704
design	-11.7704
▁benedikt	-11.7705
▁gezielt	-11.7706
▁dienstleistung	-11.7706
signal	-11.7708
▁abkürzung	-11.7708
▁piloten	-11.771
▁begegnung	-11.771
durchschnitt	-11.7712
lla	-11.7712
▁jörg	-11.7713
▁lande	-11.7713
▁jetzige	-11.7714
scheiben	-11.7714
▁kron	-11.7717
▁fo	-11.7717
kur	-11.7718
dp	-11.772
kritik	-11.7721
tte	-11.7721
ity	-11.7722
tro	-11.7725
▁identifiziert	-11.7725
gehalten	-11.7726
▁kreise	-11.7727
▁fair	-11.7729
busch	-11.773
▁ärzte	-11.773
▁waffe	-11.7731
▁abkommen	-11.7732
lor	-11.7732
▁unser	-11.7732
zwecken	-11.7734
▁grob	-11.7737
▁wertvolle	-11.7742
▁becker	-11.7746
graph	-11.7747
▁litt	-11.7749
▁niedrigen	-11.775
▁bruch	-11.775
torf	-11.7751
ić	-11.7752
▁restaurant	-11.7753
▁angeklagt	-11.7754
▁kraftwerk	-11.7757
▁worte	-11.7759
wellen	-11.7761
▁allgemeines	-11.7762
▁belastung	-11.7765
▁q	-11.7766
seiten	-11.7768
lichkeit	-11.7768
qua	-11.7769
kirch	-11.7771
▁metz	-11.7772
standort	-11.7773
kinder	-11.7774
▁kompositionen	-11.7774
té	-11.7775
▁alan	-11.7775
▁unterlagen	-11.7775
▁teilt	-11.7776
▁künstliche	-11.7777
▁gebaute	-11.7779
▁pc	-11.7781
▁relevant	-11.7781
▁schienen	-11.7783
▁bogen	-11.7784
▁geografische	-11.7785
▁brannte	-11.7786
▁verlangt	-11.7788
▁handwerker	-11.779
▁andrea	-11.7791
▁hang	-11.7791
sozialistische	-11.7792
lé	-11.7793
▁verehrt	-11.7793
▁cr	-11.7795
▁präsentierte	-11.7797
sprecher	-11.78
▁pastor	-11.7807
▁nachfrage	-11.7807
▁teilnahm	-11.7807
schl	-11.7809
übertragung	-11.7813
eid	-11.7813
gerechnet	-11.7813
ehe	-11.7813
▁bände	-11.7814
part	-11.7815
▁gänzlich	-11.7815
▁public	-11.7816
▁rü	-11.7817
▁bassist	-11.7817
▁industriellen	-11.7819
ura	-11.782
▁kritische	-11.7821
▁ernährung	-11.7824
▁bewertet	-11.7826
▁notwendigen	-11.7827
adi	-11.7827
▁67	-11.7829
▁luzern	-11.7832
▁filiale	-11.7833
▁beine	-11.7833
▁bedrohung	-11.7838
treffen	-11.7844
▁entschloss	-11.7847
▁good	-11.7849
pt	-11.7851
▁behaart	-11.7852
▁vorsitzenden	-11.7853
▁künftig	-11.7855
formel	-11.7858
▁sees	-11.7858
▁forderung	-11.7859
rb	-11.7861
had	-11.7862
▁nacional	-11.7867
▁cambridge	-11.7867
▁erziehung	-11.7867
▁port	-11.7867
▁1792	-11.7867
lf	-11.7867
technologie	-11.7868
dig	-11.787
▁willy	-11.787
zin	-11.7872
▁fliehen	-11.7872
▁airport	-11.7875
▁gehandelt	-11.7877
▁lorenz	-11.7881
▁zurückgezogen	-11.7883
▁kr	-11.7885
▁anstatt	-11.789
▁wei	-11.789
▁bakterien	-11.7891
▁türkische	-11.7892
moor	-11.7896
▁edmund	-11.7896
tieren	-11.7897
▁1300	-11.7898
sb	-11.7899
münster	-11.7905
▁abgeordnete	-11.7907
anna	-11.7908
▁aufeinander	-11.7908
▁zugrunde	-11.7909
▁konstant	-11.791
tha	-11.7911
ʿ	-11.7911
▁erfolgreicher	-11.7912
legen	-11.792
ū	-11.7922
kal	-11.7923
▁premier	-11.7924
▁oster	-11.7926
▁schwedisch	-11.7927
spur	-11.7927
tafeln	-11.7927
siegel	-11.7928
▁ansprüche	-11.7929
▁duo	-11.7929
▁gru	-11.793
▁erwachsene	-11.7931
▁bedeutend	-11.7933
▁eigens	-11.7935
▁heller	-11.7935
▁künstlich	-11.7935
▁cross	-11.7935
▁übertragung	-11.7937
regel	-11.794
▁konstantinopel	-11.794
▁siemens	-11.7941
▁ausbildungs	-11.7941
▁klöster	-11.7941
▁marco	-11.7941
▁mönche	-11.7943
▁erhaltung	-11.7944
▁02	-11.7945
▁schließung	-11.7946
▁non	-11.7946
▁bahnhöfe	-11.7951
▁bemühungen	-11.7952
▁verwandte	-11.7953
▁jemand	-11.7955
ori	-11.7958
▁modernisierung	-11.7959
▁viermal	-11.7959
blau	-11.7961
▁dorthin	-11.7962
abend	-11.7966
▁pedro	-11.7967
▁senioren	-11.7968
▁anwalt	-11.7968
bevölkerungszahl	-11.797
steiner	-11.797
for	-11.7971
▁freistaat	-11.7971
▁religionen	-11.7971
studien	-11.7974
fallen	-11.7976
gs	-11.7976
▁wahrnehmung	-11.798
▁studieren	-11.7984
▁fahrzeugen	-11.7987
▁place	-11.7988
▁zukünftige	-11.7988
▁bewertung	-11.7988
single	-11.7991
▁volle	-11.7992
▁abraham	-11.7992
▁angelegenheiten	-11.7993
▁fell	-11.7994
▁aluminium	-11.8
▁ordentlich	-11.8002
▁gordon	-11.8003
wind	-11.8004
hut	-11.8009
▁falsche	-11.8009
▁senkrecht	-11.8011
ú	-11.8012
▁freiberg	-11.8012
▁spielbetrieb	-11.8014
▁regelung	-11.8016
▁eingemeindung	-11.8018
▁biographie	-11.802
▁strategische	-11.802
▁engländer	-11.802
▁analyse	-11.8021
▁mobile	-11.8021
▁originaltitel	-11.8022
lei	-11.8024
straßen	-11.8029
▁erik	-11.8029
dr	-11.8035
▁census	-11.8037
▁vorgeschlagen	-11.8038
▁gregor	-11.8038
cast	-11.8041
▁krebs	-11.8041
bing	-11.8043
konzert	-11.8045
▁jüdisch	-11.8045
kader	-11.8045
▁bodensee	-11.8046
▁berechnet	-11.8046
▁rückte	-11.8047
▁vollendet	-11.8048
▁aufzunehmen	-11.8049
▁prinzen	-11.8051
▁anwesenheit	-11.8053
manager	-11.8053
▁selbstständige	-11.8054
geschnitten	-11.8054
▁seltene	-11.8056
▁portal	-11.8057
hir	-11.8058
affen	-11.8059
▁nordost	-11.8059
▁klinik	-11.8061
▁atlantik	-11.8063
▁ankunft	-11.8067
▁innehatte	-11.8069
▁ltd	-11.807
▁obergeschoss	-11.8072
▁tödlich	-11.8073
eisenbahnstrecke	-11.8076
bereitschaft	-11.8077
▁kommerzielle	-11.8081
▁pacific	-11.8082
▁befreiung	-11.8083
▁streifen	-11.8086
hör	-11.8087
▁einheitliche	-11.8088
▁faktoren	-11.809
▁rob	-11.8091
personal	-11.8094
▁1700	-11.8097
▁verfasser	-11.8097
▁inhaltlich	-11.8098
▁della	-11.81
▁poem	-11.8101
ral	-11.8102
▁geliebte	-11.8104
0	-11.8105
▁wasserfläche	-11.8107
▁vorort	-11.8108
fu	-11.8109
▁optische	-11.811
ase	-11.8112
▁slowakei	-11.8112
▁gesangs	-11.8113
▁äußersten	-11.8114
smöglichkeiten	-11.8114
ora	-11.8117
▁händen	-11.8117
▁allianz	-11.8119
▁breisgau	-11.812
▁elizabeth	-11.812
▁half	-11.8123
▁johnny	-11.8123
▁posen	-11.8125
▁insolvenz	-11.8125
▁lohn	-11.8125
▁burgen	-11.8125
helm	-11.8126
▁sekretär	-11.8127
▁darsteller	-11.8128
▁rasse	-11.8128
rechnung	-11.8128
lb	-11.8129
uli	-11.8129
mag	-11.8135
jer	-11.8136
▁besonderheiten	-11.814
▁hunde	-11.8141
▁kurzfristig	-11.8143
▁kö	-11.8146
▁nato	-11.8148
▁austria	-11.8148
▁unabhängigkeits	-11.8149
▁zugewiesen	-11.8151
▁weltliche	-11.8151
▁standorte	-11.8152
▁langhaus	-11.8153
▁unterstand	-11.8153
farbe	-11.8154
▁klang	-11.8154
▁karosserie	-11.8155
krone	-11.8155
▁willi	-11.8156
▁trieb	-11.8157
▁rittergut	-11.8158
fangen	-11.816
▁sage	-11.8162
▁mad	-11.8162
▁büchern	-11.8163
▁med	-11.8163
▁abriss	-11.8164
▁magnus	-11.8166
▁böhmische	-11.8166
▁mas	-11.8166
▁170	-11.8167
weiterentwickelt	-11.817
▁angewandt	-11.817
▁stars	-11.8173
▁zivile	-11.8176
▁staatsbürger	-11.818
▁borussia	-11.8185
▁prager	-11.8188
▁verkehrte	-11.8192
▁werkes	-11.8192
suche	-11.8192
fähig	-11.8193
▁zuständigkeit	-11.8194
▁hauptstraße	-11.8194
▁wechselnde	-11.8195
▁angreifer	-11.8195
▁flora	-11.8197
▁kavallerie	-11.8198
▁geschäfte	-11.8199
▁ressourcen	-11.82
▁genehmigt	-11.82
sand	-11.8202
▁linear	-11.8202
wärts	-11.8204
▁ostsee	-11.8205
▁überzeugt	-11.8205
▁zuständigen	-11.8206
▁textil	-11.8207
▁klinische	-11.8207
sgebiet	-11.8208
branche	-11.821
trieb	-11.8212
▁kaiserlich	-11.8212
▁62	-11.8214
▁haute	-11.8217
schaftswahl	-11.8217
▁afghanistan	-11.8218
▁zweitgrößte	-11.8218
hängt	-11.822
▁apostel	-11.8222
fassade	-11.8222
▁negative	-11.8224
▁einladung	-11.8225
wärme	-11.8226
▁walther	-11.8226
▁fox	-11.8227
▁pod	-11.8229
▁durchquert	-11.8229
▁monument	-11.8231
reste	-11.8233
▁angewiesen	-11.8234
▁europe	-11.8235
▁bruders	-11.8235
py	-11.8237
▁problemen	-11.8238
▁individuen	-11.8241
vertreter	-11.8243
maler	-11.8244
▁vieh	-11.8245
▁gekauft	-11.8245
▁geheime	-11.8246
▁kombiniert	-11.8252
▁interpretiert	-11.8256
▁fertigte	-11.8258
▁warf	-11.8258
▁steigende	-11.8261
▁ostfriesland	-11.8263
▁salvador	-11.8264
reiche	-11.8264
▁leder	-11.8264
ato	-11.8265
▁abu	-11.8272
wich	-11.8275
▁nachträglich	-11.8276
▁agrar	-11.8278
▁kärnten	-11.8279
▁rumänischen	-11.8282
▁verlier	-11.8283
pierre	-11.8284
tia	-11.8284
▁anstieg	-11.8293
▁flachen	-11.8295
▁gegenzug	-11.83
▁gemeinschafts	-11.83
▁detroit	-11.8302
steig	-11.8302
▁memorial	-11.8303
teilnehmer	-11.8304
▁lud	-11.8304
kat	-11.8305
▁zufällig	-11.8305
▁fahrgäste	-11.831
▁abteilungen	-11.8311
kle	-11.8315
gerichtshof	-11.8318
▁landung	-11.8319
werkstatt	-11.8319
sohn	-11.832
verordnung	-11.8324
▁hob	-11.8326
baren	-11.8329
▁hubert	-11.8329
▁sportler	-11.8329
getriebe	-11.8331
▁last	-11.8331
press	-11.8336
▁diplomat	-11.8339
▁notwendige	-11.834
kor	-11.834
▁epoche	-11.8341
bett	-11.8344
▁mg	-11.8344
▁ändern	-11.8345
▁richtige	-11.8349
▁kennt	-11.8352
▁achtelfinale	-11.8354
▁volkes	-11.8357
▁parlamentswahl	-11.8357
ose	-11.8359
bildenden	-11.836
▁übersicht	-11.8362
▁order	-11.8362
element	-11.8362
▁ontario	-11.8364
▁weblinks	-11.8364
▁element	-11.8365
▁abstimmung	-11.8365
▁zucker	-11.8369
bietet	-11.8369
▁ram	-11.8372
▁god	-11.8373
▁peters	-11.8373
▁fiktive	-11.8376
▁nordseite	-11.8376
hängen	-11.8378
▁wörtlich	-11.8379
▁billy	-11.838
▁physiker	-11.8382
▁4000	-11.8382
▁verteidigte	-11.8383
▁airlines	-11.8386
mir	-11.8387
▁konstantin	-11.8389
▁fahrt	-11.8391
▁stärke	-11.8392
lat	-11.8393
yan	-11.8393
gefühl	-11.8393
▁außenminister	-11.8394
▁alljährlich	-11.8395
bie	-11.8398
isierte	-11.8402
darstellung	-11.8403
▁guatemala	-11.8403
ó	-11.8405
▁ethnische	-11.8409
▁verschwunden	-11.841
▁53	-11.8413
▁rohr	-11.8415
▁reederei	-11.8415
▁sitzt	-11.8416
▁hohl	-11.8416
sucht	-11.8417
▁wohnsitz	-11.8417
schießen	-11.8418
▁reit	-11.8419
▁serbische	-11.8419
▁erlernte	-11.8419
▁schädel	-11.8423
laut	-11.8425
▁türken	-11.8427
nit	-11.8429
▁angel	-11.843
strahl	-11.8431
strasse	-11.8433
ante	-11.8434
▁jülich	-11.8435
▁kühl	-11.8435
minuten	-11.8436
senat	-11.8436
köpfe	-11.8436
▁portugiesisch	-11.8437
leit	-11.844
bt	-11.8441
lum	-11.8443
▁südseite	-11.8445
gebracht	-11.8447
▁farm	-11.8447
▁cam	-11.8448
woche	-11.8448
▁wach	-11.8451
itu	-11.8453
▁bade	-11.8455
▁maine	-11.8456
▁ap	-11.8457
▁georgia	-11.8457
▁brems	-11.8458
▁betätigte	-11.8458
▁nachbarschaft	-11.8458
▁vorjahr	-11.8461
▁schlechter	-11.8461
▁steuern	-11.8463
▁freunden	-11.8464
▁boeing	-11.8465
eigenschaften	-11.8465
▁konservativen	-11.8467
▁ph	-11.8468
hem	-11.8471
▁website	-11.8473
tom	-11.8475
▁schoss	-11.8477
ais	-11.8478
▁porträt	-11.8479
rakete	-11.848
▁demografische	-11.848
▁alaska	-11.8481
▁muslime	-11.8481
jh	-11.8482
bestände	-11.8482
kunden	-11.8484
▁minnesota	-11.8488
▁bart	-11.8491
marx	-11.8492
▁romans	-11.8493
▁bond	-11.8493
pyramide	-11.8497
▁abseits	-11.85
tic	-11.8502
▁maß	-11.8503
▁aufbewahrt	-11.8504
▁buches	-11.8504
eifel	-11.8504
▁kuppel	-11.8505
ful	-11.8505
▁redaktion	-11.8507
awa	-11.8509
hai	-11.8511
vu	-11.8511
ite	-11.8511
▁saniert	-11.8513
▁1400	-11.8514
▁verabschiedet	-11.8518
▁palästina	-11.852
▁siegel	-11.8521
schi	-11.8525
100	-11.8527
gra	-11.8527
▁muhammad	-11.8527
▁udssr	-11.8527
▁kommend	-11.8529
reinen	-11.853
▁verwundet	-11.853
▁sammlungen	-11.853
▁brüdern	-11.8531
▁busch	-11.8532
hm	-11.8532
▁besiegt	-11.8532
▁theatre	-11.8533
▁vergeblich	-11.8535
wang	-11.8536
▁oslo	-11.8538
▁verstand	-11.854
▁rep	-11.854
kasse	-11.8542
▁eingeleitet	-11.8547
▁johan	-11.8549
rente	-11.8549
▁syn	-11.855
▁königreichs	-11.8551
uß	-11.8552
▁from	-11.8554
vg	-11.8554
gr	-11.8554
▁verfilmung	-11.8556
▁1795	-11.8559
reaktion	-11.8559
▁verhältnisse	-11.8559
▁fordert	-11.8561
führt	-11.8561
linde	-11.8562
wilhelm	-11.8563
▁dokumentation	-11.8564
▁geburts	-11.8568
▁christentum	-11.8568
▁flecken	-11.857
▁ausge	-11.857
▁kontrolliert	-11.857
head	-11.857
▁österreicher	-11.8572
▁seele	-11.8573
▁erdbeben	-11.8575
▁dynamo	-11.8575
▁schenkte	-11.8576
▁dna	-11.8579
express	-11.858
▁konsequenz	-11.8582
weltcup	-11.8583
spruch	-11.8584
2.000	-11.8589
▁wenigsten	-11.8589
▁gesucht	-11.859
kehren	-11.8593
bindung	-11.8594
▁partie	-11.8595
▁nova	-11.8596
▁festivals	-11.8597
▁häusern	-11.8598
bs	-11.8599
aj	-11.86
studio	-11.86
hon	-11.8601
▁arabische	-11.8601
▁summe	-11.8601
▁pädagogische	-11.8604
▁japaner	-11.8607
▁geistige	-11.8608
tank	-11.8609
▁trainierte	-11.8609
wirtschaftlicher	-11.8611
nahme	-11.8611
▁amtliche	-11.8613
▁hund	-11.8614
ille	-11.8615
schüler	-11.8617
zubringen	-11.8619
chin	-11.8621
▁han	-11.8621
▁arbeitsplätze	-11.8622
▁musikern	-11.8623
ted	-11.8624
▁ortskern	-11.8624
▁amerikaner	-11.8625
▁edition	-11.8625
▁erkenntnis	-11.8627
▁schmalen	-11.8627
▁kentucky	-11.863
▁tur	-11.863
▁tageszeitung	-11.8631
▁games	-11.8631
▁muslimische	-11.8632
▁darstellte	-11.8635
angaben	-11.8636
▁gliedert	-11.8637
▁mrd	-11.8637
▁indiana	-11.8638
deckung	-11.8639
▁elb	-11.8641
▁baumeister	-11.8643
▁hospital	-11.8645
▁senats	-11.8647
treffer	-11.8648
tanz	-11.8648
methode	-11.865
▁ausschuss	-11.8651
ensis	-11.8652
▁vorbereitet	-11.8652
▁halben	-11.8653
▁tee	-11.8656
▁boy	-11.8656
▁auslands	-11.8656
tell	-11.8657
schütz	-11.8659
▁phänomen	-11.866
groß	-11.8661
▁bamberg	-11.8662
▁anthony	-11.8662
ladung	-11.8666
▁kostete	-11.8667
▁hartmann	-11.867
▁kriterien	-11.8671
▁besatzungszone	-11.8671
▁playoffs	-11.8671
▁nah	-11.8672
▁jury	-11.8679
▁inspiriert	-11.8683
▁geo	-11.8683
verständlich	-11.8684
▁konzentration	-11.8684
▁wettbewerbs	-11.8686
▁herkömmliche	-11.8686
▁popularität	-11.8686
▁07	-11.8686
gebieten	-11.8687
reserve	-11.8687
salz	-11.8688
trop	-11.8689
▁journal	-11.869
elf	-11.8694
▁bäume	-11.8695
▁erwähnte	-11.8695
▁betragen	-11.8695
▁ju	-11.8697
box	-11.87
▁foundation	-11.8702
▁seminar	-11.8707
▁1789	-11.8707
▁torhüter	-11.871
▁vorträge	-11.8712
▁kulturen	-11.8712
▁pet	-11.8712
▁heftige	-11.8713
▁kostenlos	-11.8713
▁gebraucht	-11.8713
soldaten	-11.8715
▁wolff	-11.8715
▁verfahrens	-11.8717
▁schnellen	-11.8718
▁brot	-11.8718
bauern	-11.8718
▁süddeutsche	-11.8723
▁carlo	-11.8723
▁öffnung	-11.8724
fre	-11.8725
hou	-11.8726
▁liechtenstein	-11.8726
▁fusionierte	-11.8726
kla	-11.8727
▁sar	-11.8727
register	-11.8732
▁meißen	-11.8734
▁bridge	-11.8735
▁repräsentative	-11.8736
▁laub	-11.8737
▁theorien	-11.8737
jet	-11.8738
▁nahrungs	-11.8739
▁georges	-11.8741
▁racing	-11.8742
▁kosovo	-11.8742
werken	-11.8744
▁nachbarorte	-11.8747
▁konzentriert	-11.8748
filmen	-11.8752
▁bemühte	-11.8752
▁mehrheitlich	-11.8757
▁committee	-11.8758
▁philologie	-11.8758
▁kirch	-11.8759
▁erfinder	-11.8766
▁umgestaltet	-11.8766
gö	-11.8767
▁zwang	-11.8768
▁raketen	-11.8771
▁annähernd	-11.8774
▁santiago	-11.8774
gouverneur	-11.8776
▁schien	-11.8777
fällen	-11.8779
▁humboldt	-11.878
▁rtl	-11.8781
niveau	-11.8781
hall	-11.8781
ahn	-11.8782
▁exakt	-11.8783
▁verschiedenste	-11.8784
▁moderator	-11.8787
▁special	-11.879
gate	-11.879
▁debütalbum	-11.8791
holm	-11.8791
▁bett	-11.8792
▁napoleonische	-11.8792
▁stammes	-11.8793
▁institution	-11.8793
▁freiwillig	-11.8794
▁30.000	-11.8797
▁hagen	-11.8801
▁berichte	-11.8803
▁alice	-11.8803
▁julia	-11.8803
▁kra	-11.8805
▁rheinische	-11.8811
▁mini	-11.8812
▁ruinen	-11.8812
▁passau	-11.8812
fen	-11.8816
▁times	-11.8817
▁maschinenbau	-11.8818
▁draft	-11.8819
▁verstärkung	-11.8825
mie	-11.8825
schuss	-11.8828
hoheit	-11.8833
▁untersuchte	-11.8833
▁zoo	-11.8833
vereine	-11.8833
▁hitlers	-11.8835
ländern	-11.884
▁systeme	-11.8843
▁vorrangig	-11.8844
▁befreundet	-11.8849
▁umgebende	-11.8851
▁realität	-11.8853
gangssprachlich	-11.8855
▁iranische	-11.8856
▁ablehnung	-11.8857
▁gefährdung	-11.886
▁klammern	-11.8863
cc	-11.8864
▁61	-11.8865
▁zugesprochen	-11.8867
▁atmosphäre	-11.8869
▁trennt	-11.8872
▁ökonomische	-11.8872
▁nachts	-11.8877
booten	-11.8877
gründung	-11.8878
▁inhalte	-11.8879
▁empfohlen	-11.8879
bremse	-11.8879
▁nationalpark	-11.8881
vfb	-11.8884
listen	-11.8884
▁vernichtet	-11.8884
▁pionier	-11.8884
▁kindes	-11.8886
▁symptome	-11.8886
▁sim	-11.8889
hä	-11.8892
▁gebauten	-11.8894
lab	-11.8895
▁gebräuchlich	-11.8895
arc	-11.8896
▁entwicklungen	-11.8898
dou	-11.8899
hügel	-11.89
metal	-11.89
▁vorrunde	-11.89
▁betrachten	-11.8902
▁sinnvoll	-11.8902
▁khan	-11.8903
▁gefasst	-11.8903
▁helsinki	-11.8904
▁jimmy	-11.8904
▁korea	-11.8904
▁fra	-11.8906
zuführen	-11.8907
label	-11.8908
hoch	-11.8909
å	-11.8909
▁auflagen	-11.8911
▁teilung	-11.8913
▁reformierte	-11.8914
guss	-11.8915
▁kürzer	-11.8916
▁gern	-11.8916
▁kontinental	-11.8919
▁hildesheim	-11.8919
etti	-11.8923
situationen	-11.8925
▁schlechte	-11.8925
▁margaret	-11.8929
wal	-11.893
▁witt	-11.8932
▁notwendigkeit	-11.8932
▁geschaffene	-11.8935
eus	-11.8936
▁ehepaar	-11.8937
ergaben	-11.8938
▁motto	-11.894
fasern	-11.8943
pu	-11.8944
sicht	-11.8944
▁angefertigt	-11.8944
▁begab	-11.8946
▁geprägte	-11.8946
onia	-11.8947
▁gre	-11.8949
fiction	-11.8953
▁avenue	-11.8953
▁hawaii	-11.8953
liedern	-11.8953
▁biblische	-11.8955
▁wirksam	-11.8959
halter	-11.8963
▁militärdienst	-11.8963
lag	-11.8963
▁marx	-11.8966
▁briefe	-11.8968
▁francesco	-11.897
abwärts	-11.897
▁these	-11.8977
▁liverpool	-11.8977
ness	-11.8977
▁platzierung	-11.8978
▁forum	-11.8978
sti	-11.8978
vas	-11.8978
▁untergang	-11.8979
ish	-11.8979
cm	-11.8981
▁tsv	-11.8981
▁kre	-11.8981
▁knie	-11.8986
oma	-11.8988
▁grundstein	-11.8988
▁australian	-11.899
▁heftig	-11.8991
▁gerd	-11.8993
▁kilogramm	-11.8994
▁ausgeprägt	-11.8995
▁eintracht	-11.8995
bek	-11.8996
▁intern	-11.8997
moll	-11.8997
▁baby	-11.8998
▁granit	-11.8998
▁bbc	-11.8999
▁bug	-11.8999
▁lob	-11.9
▁abge	-11.9001
▁microsoft	-11.9002
▁bezeugt	-11.9004
▁hahn	-11.9004
▁schnabel	-11.9005
▁passagier	-11.9007
▁time	-11.9007
▁uraufgeführt	-11.901
▁lothar	-11.901
▁befreien	-11.9011
▁blank	-11.9014
▁starten	-11.9015
▁liefern	-11.9015
▁zauber	-11.9016
cos	-11.9018
variante	-11.9019
färbung	-11.902
ming	-11.902
tet	-11.9021
▁konflikte	-11.9021
▁männlich	-11.9022
▁anstellung	-11.9023
vie	-11.9024
grab	-11.9025
▁kaiserin	-11.9026
▁dublin	-11.9027
▁aufrecht	-11.9031
aud	-11.9032
▁spezifische	-11.9033
▁tendenz	-11.9033
▁sports	-11.9034
▁bulgarische	-11.9034
▁handlungs	-11.9034
▁systematische	-11.9034
rekord	-11.9034
▁lincoln	-11.9035
▁kriege	-11.9035
▁qualifikations	-11.9037
bauweise	-11.9037
▁elite	-11.9039
sol	-11.9041
▁wendet	-11.9045
▁kandidierte	-11.9046
▁überarbeitet	-11.9047
▁erwerben	-11.9047
smaßnahmen	-11.9047
▁dazugehörige	-11.9049
abgeordneten	-11.905
▁magister	-11.9051
▁extra	-11.9052
veranstaltung	-11.9052
▁church	-11.9054
▁bomben	-11.9056
▁lern	-11.9057
fort	-11.9058
neckar	-11.9059
▁plus	-11.906
▁göttliche	-11.9061
haltsgröße	-11.9061
orts	-11.9061
▁immobilien	-11.9063
weisen	-11.9064
▁motorsport	-11.9065
▁dokumente	-11.9065
werft	-11.9067
▁autos	-11.9068
.1	-11.9069
▁beauftragte	-11.9069
ave	-11.9069
regeln	-11.9073
vektor	-11.9078
▁segment	-11.9078
▁drohte	-11.9078
▁weiden	-11.9079
▁reichsbahn	-11.9084
grenzen	-11.9086
▁gelben	-11.9087
▁korn	-11.909
▁autorin	-11.909
▁luftfahrt	-11.9091
hallen	-11.9092
vorsitzende	-11.9093
▁benediktiner	-11.9094
mil	-11.9096
▁asiatische	-11.9097
▁gewinner	-11.9101
egislaturperiode	-11.9101
▁bukarest	-11.9101
▁generalleutnant	-11.9102
moos	-11.9103
▁lou	-11.9104
▁schaf	-11.9107
▁markante	-11.9107
▁inszenierte	-11.9107
▁beförderung	-11.9107
nische	-11.9108
▁175	-11.9109
▁hk	-11.9115
▁explizit	-11.9118
gräben	-11.9119
▁einbau	-11.912
▁hel	-11.9122
▁schwarzwald	-11.9122
▁turn	-11.9122
verletzung	-11.9126
▁misch	-11.9127
fin	-11.913
braun	-11.9132
▁wohnt	-11.9132
▁betrachtung	-11.9132
▁nutzer	-11.9134
erscheinungsbild	-11.9135
▁mw	-11.9136
▁kastell	-11.9136
natur	-11.914
▁board	-11.9142
▁soul	-11.9145
▁social	-11.9146
▁hauptmann	-11.915
galerie	-11.9151
gier	-11.9153
▁verbraucher	-11.9155
eh	-11.9155
▁classic	-11.9156
fähre	-11.9156
rea	-11.9157
hun	-11.9159
neu	-11.9161
▁schlaf	-11.9161
▁court	-11.9164
▁legen	-11.9164
▁anbieter	-11.9165
serien	-11.9166
ique	-11.9168
▁nahegelegene	-11.9169
papier	-11.9169
türme	-11.9169
hänge	-11.917
▁zylinder	-11.9171
ı	-11.9173
statt	-11.9173
▁regierte	-11.9176
▁beeinflussen	-11.9176
schifffahrt	-11.9178
▁krieger	-11.9179
instrument	-11.918
ego	-11.918
▁fis	-11.9184
kameras	-11.9186
▁programme	-11.9186
▁fl	-11.9188
▁charlie	-11.9188
▁zurückkehrte	-11.9189
▁vorliegen	-11.9189
etta	-11.9189
▁clark	-11.9191
gabe	-11.9195
bewohner	-11.9196
▁gesetzlichen	-11.9196
beruf	-11.9197
cum	-11.9199
▁absolut	-11.9201
otter	-11.9205
▁einsetzen	-11.9206
▁sarah	-11.9207
▁erkrankte	-11.921
▁mitgliedschaft	-11.9212
varianten	-11.9213
arch	-11.9214
▁motorrad	-11.9215
sendungen	-11.9215
▁entfernte	-11.9217
▁continental	-11.9218
gesetzes	-11.9218
▁insofern	-11.9218
▁gestapo	-11.9218
▁meeresspiegel	-11.9218
▁germanistik	-11.9218
sion	-11.922
6.000	-11.9221
▁zweig	-11.9221
behandlung	-11.9222
vorstand	-11.9223
▁triebwagen	-11.9224
▁zähne	-11.9227
▁wilden	-11.923
far	-11.9232
verzeichnis	-11.9236
▁abgetrennt	-11.9236
▁systematisch	-11.9236
eau	-11.9237
▁business	-11.9242
▁privates	-11.9243
▁cur	-11.9244
▁selbständigen	-11.9244
▁anschließende	-11.9245
gearbeitet	-11.9245
▁europapokal	-11.9246
▁gal	-11.9246
▁ansätze	-11.9246
▁aussterben	-11.9249
▁senior	-11.9252
▁überzeugen	-11.9252
▁kennedy	-11.9252
▁keltische	-11.9252
dustrialisierung	-11.9255
▁uruguay	-11.9255
▁norman	-11.9257
lippe	-11.9257
▁nachhaltig	-11.9258
▁trainiert	-11.9258
▁cu	-11.9259
messe	-11.9263
04	-11.9264
▁diego	-11.9265
▁verbleib	-11.9266
▁abbruch	-11.9267
transformation	-11.9267
▁minen	-11.927
▁vorgabe	-11.9272
▁lind	-11.9272
ringer	-11.9273
srecht	-11.9273
▁erhob	-11.9274
▁ortsnamen	-11.9277
▁aufständische	-11.9277
▁verändern	-11.9277
work	-11.9279
▁italiener	-11.9279
kündigung	-11.928
▁900	-11.9281
▁sperr	-11.9281
▁überquert	-11.9281
▁verringert	-11.9283
▁experten	-11.9287
▁zeitalter	-11.9287
legung	-11.9288
▁absolviert	-11.9288
▁trend	-11.9289
als	-11.9291
▁rekonstruktion	-11.9292
gleis	-11.9292
▁verbring	-11.9292
praxis	-11.9292
▁investition	-11.9293
▁küche	-11.9295
portal	-11.9301
unruhen	-11.9301
▁soundtrack	-11.9303
▁kleidung	-11.9304
▁zuordnung	-11.9304
▁rückseite	-11.9305
yi	-11.9305
▁forest	-11.9308
▁belgrad	-11.9311
▁gesungen	-11.9312
rau	-11.9314
mail	-11.9315
▁wände	-11.9315
kind	-11.9319
▁zwickau	-11.932
aatsanwaltschaft	-11.932
▁studioalbum	-11.932
▁schläg	-11.9321
▁lkw	-11.9321
▁quadratische	-11.9322
▁limburg	-11.9323
▁religiös	-11.9323
erie	-11.9324
problem	-11.9325
▁leute	-11.9325
▁luftlinie	-11.9325
▁gehirn	-11.9325
▁versteckt	-11.9326
rig	-11.9327
terrasse	-11.9328
▁miami	-11.9329
▁böse	-11.9331
league	-11.9333
▁ried	-11.9335
▁erhalt	-11.9337
▁gegnerische	-11.9338
aufwand	-11.9338
▁50.000	-11.934
▁gai	-11.934
▁char	-11.934
▁magazin	-11.9343
behälter	-11.9343
enhausen	-11.9347
bacher	-11.9348
▁forstwirtschaft	-11.9348
▁konservatorium	-11.9349
bak	-11.935
▁gestalten	-11.9352
bereiche	-11.9353
▁vierter	-11.9354
▁mari	-11.9358
losigkeit	-11.9359
lit	-11.936
cio	-11.9361
▁verschwinden	-11.9362
▁medium	-11.9363
▁umland	-11.9364
▁1780	-11.9365
▁wahren	-11.9366
lö	-11.9367
▁thi	-11.9368
▁java	-11.937
▁regierungszeit	-11.937
▁raupen	-11.937
▁harvard	-11.9371
▁möbel	-11.9372
▁nebenfluss	-11.9376
card	-11.9376
sehen	-11.9378
▁quadratmeter	-11.938
▁92	-11.9383
▁biologische	-11.9384
▁veranstaltungs	-11.9384
▁wohnen	-11.9384
▁over	-11.9386
▁landeskirche	-11.9389
▁philosoph	-11.939
▁minden	-11.9391
▁bürgerlich	-11.9393
▁variiert	-11.9393
▁heilig	-11.9395
▁archäologie	-11.9395
krank	-11.9396
rick	-11.9398
oh	-11.9398
▁bildern	-11.9399
gekommen	-11.9401
echt	-11.9401
barkeit	-11.9403
rod	-11.9403
grube	-11.9404
▁kommerziell	-11.9404
nu	-11.9404
▁kenntnisse	-11.9405
▁optisch	-11.9406
enheim	-11.9407
▁vorarlberg	-11.9412
▁rache	-11.9413
▁alabama	-11.9414
▁mono	-11.9414
nice	-11.9415
▁thailand	-11.9415
parlament	-11.9415
osa	-11.9417
▁inschriften	-11.9417
▁rassen	-11.9417
▁geistlich	-11.9417
▁scheinbar	-11.9418
▁phasen	-11.9418
▁beobachter	-11.9419
▁schönen	-11.942
▁erhöhung	-11.9421
▁gerettet	-11.9422
▁habsburger	-11.9423
▁unterzeichnet	-11.9423
▁stiegen	-11.9424
verkehrs	-11.9425
91	-11.9426
opfer	-11.943
▁still	-11.943
marie	-11.9431
tl	-11.9431
ș	-11.9433
ble	-11.9434
▁konstruiert	-11.9435
▁verbands	-11.9436
ili	-11.9437
▁externe	-11.9439
▁petrus	-11.9445
dre	-11.9445
pil	-11.9448
ux	-11.945
can	-11.945
▁zurückkehren	-11.9451
▁ausgleich	-11.9453
erin	-11.9456
▁interessierte	-11.9457
ock	-11.9457
▁zehnten	-11.9459
fertigen	-11.946
ua	-11.9462
englischsprachig	-11.9462
▁pfarre	-11.9464
asa	-11.9464
ziele	-11.9466
lp	-11.9466
▁kriegsgefangen	-11.9466
▁herzöge	-11.9466
▁etablieren	-11.9466
▁statue	-11.9466
▁übersetzungen	-11.9467
▁reh	-11.9468
stunde	-11.9469
▁etappe	-11.9471
senator	-11.9472
zonen	-11.9472
▁behauptete	-11.9473
▁russen	-11.9473
löcher	-11.9474
aux	-11.9474
▁westdeutsche	-11.9475
isa	-11.9476
▁stiftete	-11.9477
▁barocke	-11.9477
▁höhle	-11.9478
▁herrscht	-11.9478
dol	-11.9481
tagen	-11.9481
▁versorgungs	-11.9482
▁parameter	-11.9482
▁angesetzt	-11.9483
wirtschaftskrise	-11.9484
ide	-11.9485
▁uni	-11.9486
▁ballett	-11.9486
dale	-11.9487
▁robin	-11.9488
▁paulo	-11.949
zahn	-11.9491
▁überregional	-11.9492
▁claus	-11.9492
▁expansion	-11.9492
risiko	-11.9494
▁1750	-11.9496
▁kiew	-11.9496
oy	-11.9498
▁beute	-11.9499
▁dance	-11.9502
▁gesellschafter	-11.9503
schwerpunkte	-11.9506
geschwader	-11.9507
▁künstlerisch	-11.9507
trag	-11.9508
ý	-11.9508
▁jesuiten	-11.951
ors	-11.951
▁seil	-11.9512
▁körperliche	-11.9514
▁quartier	-11.9516
▁angriffs	-11.9516
brett	-11.9518
schacht	-11.952
▁isoliert	-11.9521
▁bauzeit	-11.9522
▁kult	-11.9522
wen	-11.9523
▁café	-11.9524
▁zweijährige	-11.9524
▁zueinander	-11.9525
▁exemplar	-11.9526
▁laubblätter	-11.9526
▁genügend	-11.9527
ausstattung	-11.9527
gefallen	-11.9527
▁gottesdienst	-11.9529
▁unserer	-11.9533
▁game	-11.9535
▁reg	-11.9538
▁gletscher	-11.954
▁verknüpft	-11.9541
hy	-11.9542
▁gemeinnützige	-11.9543
▁norbert	-11.9543
▁unbedingt	-11.9544
brüche	-11.9544
▁bou	-11.9545
▁übrig	-11.9546
geschäfte	-11.9546
spuren	-11.9546
▁protein	-11.9549
▁philip	-11.9549
▁selbstständig	-11.955
▁sin	-11.955
decken	-11.9551
▁vancouver	-11.9552
cho	-11.9553
▁hms	-11.9555
kämpfen	-11.9557
▁doppelte	-11.9558
▁rauch	-11.9562
schalten	-11.9564
krankenhaus	-11.9565
gefängnis	-11.9566
▁verlangte	-11.9567
▁bären	-11.9571
▁schwaben	-11.9573
▁gruppierung	-11.9575
▁komplexe	-11.9577
▁ray	-11.9582
▁schlicht	-11.9584
▁aufnahm	-11.9584
▁studios	-11.9585
acker	-11.9586
▁deutet	-11.9587
▁winterthur	-11.9587
gipfel	-11.9587
▁umwandlung	-11.9589
▁kroatische	-11.9589
▁anregung	-11.9589
server	-11.959
▁umfassend	-11.959
tik	-11.9591
haken	-11.9593
▁kanzel	-11.9594
chel	-11.9594
▁fachhochschule	-11.9596
▁roth	-11.9596
▁kinofilm	-11.9598
▁christopher	-11.9599
ried	-11.9599
sprozess	-11.9599
▁moderierte	-11.96
direktion	-11.96
▁pia	-11.96
▁cro	-11.96
steigen	-11.9601
▁sg	-11.9601
garde	-11.9603
virus	-11.9604
▁gekrönt	-11.9604
▁taiwan	-11.9604
▁staatssekretär	-11.9605
schläge	-11.9608
▁zitiert	-11.9608
▁gedenken	-11.9611
▁landstraße	-11.9612
anti	-11.9613
▁dir	-11.9613
▁herangezogen	-11.9613
▁heimspiele	-11.9615
▁leichen	-11.9616
▁repräsentanten	-11.9616
flieger	-11.9618
▁kv	-11.9619
hieb	-11.962
▁yu	-11.962
▁höhenlage	-11.9622
gor	-11.9625
▁kro	-11.9626
meer	-11.9631
pot	-11.9632
kul	-11.9633
▁pont	-11.9633
▁lüneburg	-11.9633
▁paulus	-11.9635
ever	-11.9635
pis	-11.9636
bilanz	-11.9637
▁hör	-11.9638
▁einwanderer	-11.9639
▁1791	-11.9642
erziehung	-11.9643
▁dünn	-11.9646
▁decken	-11.9647
▁kehrt	-11.9653
▁reiche	-11.9654
▁trainings	-11.9655
bridge	-11.9656
▁nächstgelegene	-11.9657
höfe	-11.9658
▁werkstatt	-11.9658
joch	-11.966
▁zwangs	-11.9661
▁muskel	-11.9662
käfer	-11.9663
▁interessant	-11.9664
kabine	-11.9665
▁hinzugefügt	-11.9666
▁mechanisch	-11.9667
▁flache	-11.9668
mehrheit	-11.9674
▁aserbaidschan	-11.9674
▁750	-11.9676
artikel	-11.968
▁linden	-11.9682
freien	-11.9683
▁zisterzienser	-11.9683
▁eichstätt	-11.9684
▁benutzen	-11.9684
▁götter	-11.9685
▁muttersprache	-11.969
▁gemeldet	-11.9692
▁gewährleistet	-11.9692
ausstellungen	-11.9692
▁veb	-11.9693
▁weltrekord	-11.9694
akte	-11.9697
▁persönlichkeit	-11.9698
yo	-11.9704
▁|	-11.9706
pie	-11.9708
▁geschie	-11.9708
▁saudi	-11.971
politisch	-11.971
risiken	-11.9711
deutschland	-11.9712
▁caspar	-11.9712
▁aufstellung	-11.9712
▁palm	-11.9712
▁comic	-11.9714
grau	-11.9714
▁hal	-11.9715
▁kaiserreich	-11.9717
istik	-11.9718
▁rechtsprechung	-11.9719
▁hervorgegangen	-11.9719
▁qualitäts	-11.9721
cul	-11.9722
eisenbahn	-11.9723
wälder	-11.9723
funde	-11.9723
▁industrielle	-11.9726
▁interne	-11.9726
▁passiert	-11.9727
▁damm	-11.9727
rex	-11.9731
konzerten	-11.9733
▁südafrikanische	-11.9736
▁nelson	-11.9736
aufbau	-11.9737
▁bestimmungen	-11.9741
▁she	-11.9741
etappe	-11.9743
▁sitzplätze	-11.9744
ähnliche	-11.9744
▁dekan	-11.9744
▁montreal	-11.9745
mor	-11.9746
▁philippinen	-11.9748
▁territorial	-11.9749
▁dahinter	-11.9749
▁termin	-11.9749
▁leber	-11.9751
▁überschritt	-11.9753
▁zumal	-11.9754
▁markgrafen	-11.9755
▁nannten	-11.9757
▁angelegte	-11.9757
▁aufsehen	-11.976
▁einnahme	-11.976
▁triumph	-11.976
▁versuchs	-11.9761
rica	-11.9765
rup	-11.9766
▁pap	-11.9766
▁gotha	-11.9767
aro	-11.9767
lokomotiven	-11.977
▁geschichten	-11.977
▁erneuerung	-11.9771
chu	-11.9773
gegen	-11.9773
▁ukrainische	-11.9773
▁augustus	-11.9773
▁gil	-11.9774
▁stadtverwaltung	-11.9775
▁antonius	-11.9775
alis	-11.9776
kritische	-11.9777
▁ep	-11.9779
▁geeignete	-11.9779
▁basierend	-11.9779
▁scheitern	-11.9781
vir	-11.9783
▁vorkommende	-11.9785
hill	-11.9787
▁lokomotive	-11.9787
▁epi	-11.9787
▁düsseldorfer	-11.9788
▁gelehrten	-11.9789
▁olympiasieger	-11.9789
▁kaffee	-11.979
bor	-11.9791
▁überlassen	-11.9796
▁rapper	-11.9797
verdienstkreuz	-11.9799
zig	-11.9799
▁verkörperte	-11.9801
schieß	-11.9803
zukommen	-11.9803
ade	-11.9805
▁durchzuführen	-11.9806
eff	-11.9807
▁namhafte	-11.9808
▁vermutung	-11.9808
▁akzeptiert	-11.9809
baureihe	-11.9809
▁mitteln	-11.981
▁porto	-11.9811
▁strafe	-11.9812
gewalt	-11.9812
gis	-11.9815
wehr	-11.9816
arabien	-11.9816
faktoren	-11.9817
pack	-11.9817
▁folgendermaßen	-11.9817
▁erscheinende	-11.9822
periode	-11.9822
▁ausläufer	-11.9825
▁angegliedert	-11.9825
▁europäer	-11.9825
aktion	-11.9826
▁zell	-11.9827
▁fan	-11.9829
▁slalom	-11.9831
ø	-11.9832
▁stärkere	-11.9832
▁unterrichts	-11.9832
▁konsum	-11.9833
▁verkürzt	-11.9839
▁queen	-11.9841
▁wandel	-11.9841
eil	-11.9841
▁zusammenbruch	-11.9842
▁tro	-11.9844
eger	-11.9845
▁angestellt	-11.9846
▁grant	-11.9846
▁beherrscht	-11.9847
▁wilde	-11.9848
▁fernsehfilm	-11.9849
▁frühzeitig	-11.985
▁wester	-11.985
▁viktor	-11.9851
▁herrschte	-11.9853
offs	-11.9853
wirt	-11.9853
▁werks	-11.9855
ric	-11.9856
▁sprachraum	-11.9856
▁kath	-11.9856
▁sul	-11.9857
▁schmid	-11.9858
▁hip	-11.9859
▁1784	-11.9859
▁abgetragen	-11.9859
ute	-11.9861
▁republikaner	-11.9862
▁lloyd	-11.9863
vel	-11.9864
rundfahrt	-11.9864
▁wirtschaftlich	-11.9866
▁gleise	-11.9867
▁arizona	-11.987
▁namensgeber	-11.987
▁1796	-11.9871
▁rh	-11.9871
lund	-11.9871
▁105	-11.9871
▁südost	-11.9873
▁gunst	-11.9873
kommissar	-11.9877
▁lech	-11.9878
▁wöchentlich	-11.9879
▁warten	-11.988
▁durchgesetzt	-11.9883
ace	-11.9885
atur	-11.9888
▁anklage	-11.9888
▁unterhielt	-11.9889
▁townships	-11.9889
▁zusammenlebende	-11.9889
▁nachteil	-11.989
▁evolution	-11.989
▁bayer	-11.9892
▁hohes	-11.9894
▁magen	-11.9894
ahr	-11.9895
▁reduzieren	-11.9897
▁südkorea	-11.9897
▁pilot	-11.9901
▁84	-11.9903
xi	-11.9905
▁sea	-11.9907
▁stuck	-11.9908
gua	-11.9912
gos	-11.9912
richtlinie	-11.9915
▁slowenien	-11.9915
▁wisconsin	-11.9915
▁beachtung	-11.9916
▁erstligist	-11.9917
tuch	-11.9917
▁meilen	-11.9917
▁erlassen	-11.9918
werbung	-11.9918
▁motors	-11.9919
▁australia	-11.9919
▁italia	-11.9924
▁herrenhaus	-11.9924
▁technology	-11.9924
▁verdrängt	-11.9926
rechtlich	-11.9929
▁por	-11.993
politiker	-11.993
▁coburg	-11.9932
heizung	-11.9932
▁franziskaner	-11.9933
▁börse	-11.9933
▁cheftrainer	-11.9934
▁sommerspielen	-11.9934
▁marokko	-11.9934
manns	-11.9935
gleichen	-11.9935
pad	-11.9936
rom	-11.9937
▁soziologie	-11.9937
▁wochenende	-11.9939
▁faktisch	-11.9941
▁hängen	-11.9942
▁fernsehsender	-11.9943
▁bud	-11.9943
▁philosophen	-11.9945
▁vollzogen	-11.9945
geführten	-11.9947
▁schenkung	-11.9948
▁hauptwerk	-11.9949
▁450	-11.9949
▁death	-11.995
▁staatsexamen	-11.9952
▁ostseite	-11.9956
expedition	-11.9957
▁dirigent	-11.9959
▁singlehaushalte	-11.996
▁burgund	-11.9962
▁irisch	-11.9962
weis	-11.9963
▁folk	-11.9963
shaw	-11.9965
▁arn	-11.9967
▁polizisten	-11.9968
▁empfing	-11.9969
▁ferrari	-11.997
▁fellow	-11.997
▁kantone	-11.9972
mé	-11.9972
▁holding	-11.9972
ografie	-11.9977
▁stausee	-11.9979
martin	-11.998
▁vfl	-11.9982
echten	-11.9985
landeshauptstadt	-11.9985
▁melbourne	-11.9988
aire	-11.9988
▁wiederwahl	-11.9989
▁germania	-11.9989
▁magazine	-11.9989
fliegen	-11.9989
▁volkspartei	-11.9989
▁vorwärts	-11.9992
schar	-11.9992
▁edgar	-11.9994
brüder	-11.9995
▁vermitteln	-11.9995
▁generalsekretär	-11.9996
▁gegangen	-11.9999
▁schatz	-12.0003
oberbefehlshaber	-12.0006
▁langfristig	-12.0009
▁ple	-12.0009
philosophie	-12.0012
▁flog	-12.0012
▁atelier	-12.0015
▁intensive	-12.0017
▁ungarische	-12.0022
▁nordsee	-12.0024
hei	-12.0026
▁hyper	-12.0028
▁dokumentarfilm	-12.003
▁bürgern	-12.003
▁vorfahre	-12.0031
▁inc	-12.0032
▁gewünschte	-12.0033
▁cook	-12.0034
▁ausstrahlung	-12.0035
▁medaillen	-12.0035
lc	-12.0039
▁one	-12.0041
uf	-12.0043
▁rallye	-12.0046
▁normen	-12.0046
▁jahrelang	-12.0048
▁auftretende	-12.0048
▁weißer	-12.0049
▁pius	-12.0049
gal	-12.005
▁mercedes	-12.0051
▁augsburger	-12.0051
▁powiat	-12.0051
▁besagt	-12.0052
gio	-12.0052
▁bruce	-12.0053
eröffnung	-12.0054
▁natural	-12.0054
▁74	-12.0056
junioren	-12.0059
▁erlitten	-12.0061
▁spur	-12.0061
▁beschränkte	-12.0063
▁gewinnt	-12.0064
stone	-12.0067
▁meint	-12.0067
▁vogt	-12.0068
▁einsetzte	-12.0069
bul	-12.0069
▁mittelfeld	-12.0071
ander	-12.0073
tos	-12.0075
sf	-12.0075
▁veröffentlichen	-12.0079
beamter	-12.008
ban	-12.0082
▁organisations	-12.0082
griff	-12.0083
▁verweist	-12.0084
▁verziert	-12.0084
▁verhaltens	-12.0084
▁fremden	-12.0085
▁rinder	-12.0089
mun	-12.0094
▁hein	-12.0096
▁claude	-12.0097
▁ruth	-12.0097
▁elsass	-12.0097
gezogen	-12.0098
ergebnis	-12.01
▁astronomische	-12.01
oro	-12.0101
▁erbte	-12.0101
kap	-12.0101
▁fehlte	-12.0103
▁fotos	-12.0105
▁problematisch	-12.0106
affäre	-12.0108
klang	-12.011
▁bewusstsein	-12.011
fell	-12.0112
▁sprang	-12.0112
▁konventionelle	-12.0117
has	-12.0118
▁beliebte	-12.0118
▁beachten	-12.0118
▁standorten	-12.0119
▁separat	-12.0119
▁gültig	-12.012
kauf	-12.0122
wohnung	-12.0122
▁kabel	-12.0122
▁bestimmter	-12.0124
▁cousin	-12.0124
▁bebauung	-12.0125
ström	-12.0126
zent	-12.0127
▁etappen	-12.0129
gun	-12.013
wilhelms	-12.0131
▁pilger	-12.0132
▁überleben	-12.0132
▁nationalrat	-12.0137
schlug	-12.0141
▁opera	-12.0141
▁ökologische	-12.0144
▁roy	-12.0145
hebel	-12.0146
nan	-12.0147
▁mü	-12.0147
▁rast	-12.0149
freie	-12.0152
▁erstellte	-12.0152
▁begriffs	-12.0154
▁mauern	-12.0157
▁pal	-12.016
▁angebunden	-12.0161
▁mega	-12.0161
▁belief	-12.0166
900	-12.0167
▁budget	-12.0168
▁65.	-12.017
paul	-12.0171
▁boys	-12.0175
▁erschließung	-12.0176
▁cap	-12.0176
brücken	-12.0177
▁ländereien	-12.018
▁schönheit	-12.0181
▁betreten	-12.0181
▁tabak	-12.0181
▁gottesdienste	-12.0182
pfad	-12.0183
▁kairo	-12.0183
▁charaktere	-12.0183
▁mau	-12.0184
chal	-12.0184
▁sportverein	-12.0185
betreiber	-12.0186
truppe	-12.0191
bc	-12.0191
funk	-12.0191
aufsicht	-12.0193
▁fr	-12.0194
▁schulzeit	-12.0194
▁sternen	-12.0197
▁augusta	-12.0197
liebe	-12.0198
regelung	-12.0199
berücksichtigung	-12.0199
▁niederlagen	-12.0199
idi	-12.02
hd	-12.0201
▁hay	-12.0201
▁xi	-12.0202
tests	-12.0204
▁emigrierte	-12.0207
▁école	-12.0208
ohl	-12.0211
▁teilstück	-12.0212
heid	-12.0214
▁adelige	-12.0215
▁iwan	-12.0216
lade	-12.0216
sprech	-12.0217
timo	-12.0219
▁beliebig	-12.022
▁verursachte	-12.0222
▁hinrichtung	-12.0222
▁disziplin	-12.0222
▁florian	-12.0223
▁gro	-12.0224
▁101	-12.0224
▁traditionen	-12.0225
▁bürgermeisterei	-12.0226
bot	-12.0227
▁wenzel	-12.0227
▁erwiesen	-12.0229
▁räumen	-12.023
heer	-12.0231
▁offenbach	-12.0231
anne	-12.0232
▁enorme	-12.0233
ott	-12.0233
fällig	-12.0234
▁beobachtung	-12.0234
▁gedenkstätte	-12.0238
▁herrschende	-12.024
▁ändert	-12.0241
ain	-12.0241
oth	-12.0243
▁feldzug	-12.0244
jew	-12.0244
▁ursula	-12.0245
▁gastgeber	-12.0245
hofer	-12.0246
▁zurückgekehrt	-12.0246
▁russell	-12.0246
bas	-12.0246
▁gesetzlich	-12.0246
▁stufen	-12.0247
mast	-12.0247
▁sofortige	-12.0248
este	-12.025
▁verb	-12.025
▁weigerte	-12.0252
▁bundesweit	-12.0253
▁peri	-12.0253
▁heilbronner	-12.0253
warte	-12.0253
gemacht	-12.026
▁entertainment	-12.0264
▁glaubt	-12.0264
time	-12.0265
inus	-12.0268
▁indirekt	-12.027
▁lehren	-12.0271
▁steinen	-12.0271
stimme	-12.0272
▁zuständige	-12.0273
▁überzeugung	-12.0273
ias	-12.0275
▁franklin	-12.0275
lott	-12.0275
▁dave	-12.0276
slam	-12.0276
▁hit	-12.0277
▁explosion	-12.028
▁sekundär	-12.028
vy	-12.028
assistent	-12.0281
▁magdeburger	-12.0281
route	-12.0282
nica	-12.0282
▁märchen	-12.0282
▁vermarktet	-12.0283
titelverteidiger	-12.0283
änderung	-12.0285
zum	-12.0285
▁monats	-12.0287
▁fer	-12.0288
▁revolutionäre	-12.0288
empore	-12.029
mitteln	-12.029
▁mehrheitswahl	-12.0291
▁zypern	-12.0292
▁benötige	-12.0292
▁zweitligist	-12.0292
▁freigegeben	-12.0293
▁verlieren	-12.0294
▁kies	-12.0295
▁nikolai	-12.0296
▁gelangten	-12.0296
infektion	-12.0298
ello	-12.0298
long	-12.0299
▁sekunde	-12.03
▁15.000	-12.0304
▁hc	-12.0305
▁technologie	-12.0306
ane	-12.0306
▁stimm	-12.0308
schach	-12.0308
zuziehen	-12.0309
▁indonesien	-12.0311
▁gewährleiste	-12.0311
▁korrekt	-12.0312
▁kunstgeschichte	-12.0313
▁geschieden	-12.0316
▁thompson	-12.032
▁abgeschafft	-12.0321
schale	-12.0323
▁publikation	-12.0325
baus	-12.0326
▁einnahmen	-12.0326
dau	-12.0327
wei	-12.0328
▁tiroler	-12.0328
▁fauna	-12.0328
▁held	-12.0331
▁vietnam	-12.0331
▁erfordert	-12.0334
▁übersetzer	-12.0336
til	-12.0336
platzierungen	-12.0337
▁schulden	-12.0338
gleichungen	-12.0339
gramm	-12.0339
▁niveau	-12.034
▁your	-12.0341
polizei	-12.0343
▁steinkohle	-12.0344
▁bismarck	-12.0346
gebet	-12.0347
▁vertrauen	-12.0348
▁shanghai	-12.0348
▁apple	-12.0349
preise	-12.0349
▁4-	-12.0349
▁vermögens	-12.0351
▁alois	-12.0351
▁weiterbildung	-12.0352
▁heiz	-12.0353
komplexen	-12.0353
▁hörspiel	-12.0355
sperre	-12.0355
dienstes	-12.0356
▁beibehalten	-12.0358
▁widerspruch	-12.036
▁unterart	-12.0361
▁tabellen	-12.0368
spolitik	-12.0368
▁most	-12.037
▁dun	-12.037
▁sorgt	-12.0371
▁abzug	-12.0372
ning	-12.0372
▁bauer	-12.0374
▁anweisung	-12.0375
dri	-12.0375
cz	-12.0376
ye	-12.0376
▁ostpreußen	-12.0377
dorff	-12.0377
halbinsel	-12.0378
▁betrifft	-12.0378
▁menschheit	-12.0378
index	-12.0379
angriff	-12.0383
balken	-12.0383
▁landau	-12.0386
cent	-12.0387
▁audio	-12.0389
pra	-12.039
brook	-12.039
▁laien	-12.0392
folgen	-12.0393
▁elektronen	-12.0394
▁vincent	-12.0396
▁resultat	-12.0396
▁ehrenbürger	-12.0396
▁gesendet	-12.0399
wol	-12.0401
▁kara	-12.0404
▁ruder	-12.0405
...	-12.0405
▁söhnen	-12.0406
▁jane	-12.0407
▁betreuung	-12.0407
▁weitergeführt	-12.0407
kollegen	-12.0408
▁vorwürfe	-12.0408
dg	-12.0409
▁zukünftig	-12.041
▁ordnete	-12.0411
bury	-12.0411
▁gefallenen	-12.0411
▁kontroverse	-12.0412
▁emanuel	-12.0415
▁mississippi	-12.0415
gelassen	-12.0417
betrieben	-12.0419
▁hol	-12.042
▁kommandant	-12.042
ass	-12.042
▁grunde	-12.0424
misch	-12.0424
biologie	-12.0425
▁kahl	-12.0426
aatsbürgerschaft	-12.0426
ssen	-12.0426
▁sant	-12.0428
▁anderson	-12.043
▁bull	-12.0432
profil	-12.0433
▁diskografie	-12.0434
▁behaupten	-12.0434
▁informiert	-12.0434
▁hervorging	-12.0434
ergreifung	-12.0434
▁persische	-12.0436
kleid	-12.0437
sekretär	-12.0438
▁mangels	-12.0438
50	-12.0438
▁norm	-12.0438
aufstand	-12.0441
▁spezialisierte	-12.0441
▁erlaubnis	-12.0446
▁finger	-12.0447
▁weiss	-12.0447
▁angewandte	-12.0447
weimar	-12.0449
darbietung	-12.0452
▁railroad	-12.0453
▁erdöl	-12.0453
▁verhaftung	-12.0454
uhr	-12.0459
▁wayne	-12.0463
▁fremde	-12.0468
▁pfeiler	-12.0468
▁bemüht	-12.0469
toren	-12.0469
▁kronen	-12.0469
▁news	-12.047
▁alternativen	-12.0471
▁electric	-12.0472
▁kapitulation	-12.0472
▁emma	-12.0472
▁cat	-12.0474
▁schrittweise	-12.0474
▁regierende	-12.0477
▁vergleichbare	-12.0478
wasserversorgung	-12.048
tner	-12.048
▁cover	-12.0481
▁linux	-12.0481
▁welle	-12.0482
fiel	-12.0482
▁homburg	-12.0483
▁begeistert	-12.0483
▁strategisch	-12.0486
▁kreistag	-12.0488
auftrag	-12.0488
▁westseite	-12.0488
triebwerk	-12.0488
federn	-12.0491
giebel	-12.0492
bia	-12.0493
▁unterhalten	-12.0495
▁einteilung	-12.0497
▁kommunisten	-12.0498
▁gewährt	-12.0499
▁folgender	-12.05
▁einweihung	-12.05
austausch	-12.0502
wesens	-12.0503
▁vereinte	-12.0503
rna	-12.0504
▁verlegung	-12.0507
fische	-12.0507
▁zeichnen	-12.051
▁dark	-12.0511
▁bock	-12.0512
ado	-12.0512
▁entstammt	-12.0515
▁frey	-12.0516
grat	-12.0517
▁lausanne	-12.0519
generation	-12.0521
lesen	-12.0522
▁comp	-12.0522
runden	-12.0523
▁demonstration	-12.0524
▁vorschriften	-12.0525
asia	-12.0525
▁pen	-12.0529
▁konzession	-12.0529
pädagogik	-12.0529
fälle	-12.053
eo	-12.053
▁ecke	-12.0531
▁autorität	-12.0531
▁gestrichen	-12.0532
▁realschule	-12.0532
▁unterseite	-12.0532
▁erringen	-12.0533
messer	-12.0535
▁mountains	-12.0536
waffe	-12.0538
▁schar	-12.0539
▁220	-12.054
▁kulturell	-12.0542
brau	-12.0542
erfahrung	-12.0544
▁schäfer	-12.0544
▁lieben	-12.0545
sorten	-12.0545
▁pu	-12.0545
▁italiens	-12.0546
▁santo	-12.0546
▁atom	-12.0548
▁janeiro	-12.0548
ight	-12.055
▁maurice	-12.0551
gesetze	-12.0551
qa	-12.0551
▁liebes	-12.0552
▁clara	-12.0552
▁demokraten	-12.0553
▁μ	-12.0557
▁bristol	-12.0558
▁hunger	-12.056
▁bundesstaaten	-12.0561
▁russlands	-12.0564
▁bearbeitet	-12.0565
▁altes	-12.0566
▁grimm	-12.0566
gewebe	-12.0567
hum	-12.0567
▁konkurs	-12.0568
▁erregte	-12.0568
hotel	-12.0571
▁prinzipiell	-12.0571
aki	-12.0572
lib	-12.0575
ami	-12.0576
▁verteilung	-12.0576
raketen	-12.0578
lieferung	-12.0578
ligen	-12.0579
▁aufzubauen	-12.058
▁riesen	-12.0582
stat	-12.0583
▁konkret	-12.0583
▁who	-12.0584
familien	-12.0585
▁morgan	-12.0585
▁fernsehserien	-12.0586
–	-12.0587
▁pflicht	-12.0588
▁frühesten	-12.0588
▁reiner	-12.0589
▁rugby	-12.0589
▁kunstwerke	-12.059
mayer	-12.0592
▁tower	-12.0593
rö	-12.0593
▁action	-12.0594
▁klosterkirche	-12.0594
▁cape	-12.0595
▁resultierende	-12.0597
bil	-12.0597
▁jeff	-12.0597
ná	-12.0598
▁uwe	-12.0599
▁lip	-12.0602
lung	-12.0602
rah	-12.0603
▁base	-12.0605
▁deuten	-12.0606
▁wusste	-12.0606
able	-12.0606
▁bologna	-12.0607
▁schwerin	-12.0607
▁katholisch	-12.0607
▁erwarten	-12.061
▁iowa	-12.0618
ographie	-12.0619
▁genutzte	-12.062
▁vorgeworfen	-12.0621
▁falken	-12.0622
geschrieben	-12.0625
oz	-12.0625
skirche	-12.0628
▁kenntnis	-12.0633
▁captain	-12.0635
spitzen	-12.0635
nier	-12.0637
komödie	-12.064
ats	-12.064
court	-12.0643
▁larven	-12.0643
krieges	-12.0644
▁entfernen	-12.0645
graf	-12.0645
brun	-12.0648
▁mut	-12.0648
▁1770	-12.0648
adresse	-12.0649
▁geh	-12.065
▁probe	-12.0653
gärten	-12.0654
▁ziemlich	-12.0654
▁klassischer	-12.0655
▁kristall	-12.0655
▁handball	-12.0656
singen	-12.0657
▁episode	-12.0658
geachtet	-12.0658
regionen	-12.0658
▁protokoll	-12.0659
▁mittelalters	-12.066
▁zulässig	-12.066
pit	-12.0661
▁av	-12.0662
▁that	-12.0663
▁oswald	-12.0667
▁friedrichs	-12.0667
▁meinte	-12.0668
hom	-12.067
stream	-12.067
pur	-12.067
weltrangliste	-12.0673
haftung	-12.0673
dienste	-12.0673
▁conference	-12.0674
▁neuordnung	-12.0676
▁fertigung	-12.0676
▁menschenrechte	-12.0679
▁partnerschaft	-12.0681
▁schuss	-12.0682
▁aktionen	-12.0683
▁freitag	-12.0683
▁gewerkschaften	-12.0684
▁fachzeitschrift	-12.0685
gur	-12.0686
apparat	-12.0686
zulegen	-12.0687
▁mächtigen	-12.0687
gegenüberliegend	-12.0688
▁auguste	-12.0689
dame	-12.0689
zylinder	-12.069
führen	-12.0691
▁cooper	-12.0694
informationen	-12.0694
wahlperiode	-12.0695
▁ausmaß	-12.0696
▁meta	-12.0697
▁marktplatz	-12.0697
▁endpunkt	-12.0697
▁räumlichkeit	-12.0698
medien	-12.0699
sbedingungen	-12.0699
▁kalkstein	-12.0701
kai	-12.0701
examen	-12.0703
▁sierra	-12.0704
schmiede	-12.0712
▁kurzfilm	-12.0712
▁zweithöchste	-12.0713
▁unregelmäßig	-12.0714
▁schafft	-12.0716
fur	-12.0718
▁1100	-12.0719
▁teilnehmern	-12.0719
▁beschwerde	-12.072
dichtung	-12.0721
▁ausgang	-12.0723
▁löwe	-12.0725
werder	-12.0725
▁guido	-12.0726
▁hochschullehrer	-12.0726
▁drang	-12.0727
▁gewölbe	-12.0727
medizin	-12.0729
▁dor	-12.073
▁startet	-12.0732
brandenburgische	-12.0733
▁schreib	-12.0734
isation	-12.0737
kh	-12.0739
verantwortlich	-12.074
▁bestritten	-12.074
▁kontroll	-12.074
fahne	-12.0742
▁hongkong	-12.0742
▁franchise	-12.0742
▁direkter	-12.0742
▁gelblich	-12.0743
▁heinrichs	-12.0745
▁palast	-12.0745
▁wettbewerbe	-12.0746
▁jungfrau	-12.0746
sg	-12.0748
sachen	-12.0749
stor	-12.0749
pläne	-12.0751
sausschuss	-12.0751
▁trennen	-12.0752
▁kohl	-12.0756
bur	-12.076
▁porsche	-12.0762
▁pakistan	-12.0763
▁lac	-12.0765
▁repräsentiert	-12.0766
▁sm	-12.077
▁kent	-12.0772
feucht	-12.0772
▁coast	-12.0773
▁sammel	-12.0773
dow	-12.0773
▁aufgelegt	-12.0774
▁vorläufig	-12.0775
▁gotteshaus	-12.0777
▁dirk	-12.0777
▁run	-12.0779
volk	-12.0779
▁beseitigt	-12.078
▁down	-12.0781
▁übergangs	-12.0781
▁bayreuth	-12.0782
▁festgehalten	-12.0782
▁eingebracht	-12.0783
dai	-12.0784
▁csu	-12.0788
▁väterliche	-12.0788
▁entwickler	-12.0791
▁stuart	-12.0792
▁axel	-12.0793
▁experimentelle	-12.0793
▁herzen	-12.0794
▁abwechselnd	-12.0795
▁räume	-12.0796
▁christine	-12.0796
▁wurzel	-12.0797
▁fun	-12.0798
▁demselben	-12.0798
aya	-12.08
▁aero	-12.08
berechtigung	-12.0801
▁aussprache	-12.0802
sfähigkeit	-12.0802
▁gedenktafel	-12.0802
▁louise	-12.0803
por	-12.0804
meldung	-12.0805
▁theo	-12.0808
bruck	-12.081
iten	-12.081
▁orf	-12.081
▁geistig	-12.0812
▁einbezogen	-12.0812
bow	-12.0813
putsch	-12.0813
tsu	-12.0814
▁geeigneten	-12.0815
▁lauter	-12.0816
▁plattform	-12.0816
charakter	-12.0817
▁wälder	-12.082
▁chemiker	-12.0821
▁tatsächliche	-12.0821
▁nebeneinander	-12.0821
▁ausgangs	-12.0822
▁graham	-12.0824
▁ketten	-12.0825
▁woll	-12.0825
differenz	-12.0825
▁luise	-12.0826
▁schmale	-12.0826
▁restaurants	-12.0827
▁gepflegt	-12.0827
staatsanwalt	-12.0828
▁giebel	-12.0829
▁schönste	-12.083
▁anschloss	-12.0831
ofen	-12.0833
▁taten	-12.0833
stall	-12.0834
gegner	-12.0834
▁neuerung	-12.0834
▁vollend	-12.0835
▁feindliche	-12.0836
▁verletzte	-12.0836
▁glocke	-12.0836
▁bewirkt	-12.0839
aktivitäten	-12.0841
▁arme	-12.0842
▁dazwischen	-12.0842
spektrum	-12.0844
▁umstand	-12.0845
▁vorgelegt	-12.0847
▁griechen	-12.0847
▁bearbeitung	-12.0848
tradition	-12.0848
▁staatspräsident	-12.0849
▁harten	-12.0851
▁fire	-12.0854
▁reaktionen	-12.0855
frieden	-12.0855
▁mönch	-12.0858
gegenüber	-12.0859
nor	-12.086
arme	-12.086
▁finanzen	-12.0861
▁thor	-12.0861
▁vetter	-12.0862
▁gewerkschaft	-12.0865
▁rechtlich	-12.0866
▁biel	-12.0867
▁reagiert	-12.0867
▁trinkwasser	-12.0868
▁ausgegeben	-12.0868
▁stoff	-12.087
lov	-12.0871
▁carter	-12.0873
▁deutung	-12.0874
▁pazifik	-12.0876
nom	-12.0878
tori	-12.0878
▁ehrenmitglied	-12.0878
▁verbundene	-12.0879
beziehungen	-12.088
▁balkan	-12.0881
▁derjenige	-12.0883
▁buslinien	-12.0884
konstante	-12.0884
▁multi	-12.0885
ido	-12.0885
▁mozart	-12.0887
▁mel	-12.0891
erichterstattung	-12.0891
▁laser	-12.0892
burn	-12.0898
ago	-12.09
▁vermuten	-12.09
▁ash	-12.0901
▁schichten	-12.0901
tina	-12.0903
▁individuell	-12.0904
rik	-12.0905
▁ehre	-12.0907
isieren	-12.0908
turnieren	-12.0908
kaserne	-12.0909
mischung	-12.091
▁turner	-12.0911
▁länderspiel	-12.0912
▁vw	-12.0914
dateien	-12.0915
▁spitznamen	-12.0915
▁überregionale	-12.092
ick	-12.0923
▁scheidung	-12.0924
ito	-12.0925
▁lucas	-12.0926
▁zugerechnet	-12.0926
bourg	-12.0926
▁xii	-12.0928
decker	-12.0928
▁verhinderte	-12.0929
inhaber	-12.0929
▁übersiedelte	-12.093
zugehörigkeit	-12.0931
▁kevin	-12.0932
brecht	-12.0932
▁agnes	-12.0933
▁day	-12.0935
▁münz	-12.0935
emann	-12.0936
dorn	-12.0937
▁marketing	-12.0938
▁ghana	-12.0939
▁ausgeschieden	-12.094
▁codex	-12.0941
▁verbracht	-12.0942
▁uniform	-12.0943
uv	-12.0943
▁ums	-12.0948
▁verhältnismäßig	-12.0948
▁kir	-12.0951
▁befehlshaber	-12.0953
▁unterfamilie	-12.0954
messung	-12.0955
▁initiierte	-12.0956
▁bewaffnete	-12.0956
deutsche	-12.096
▁opel	-12.0961
forst	-12.0961
▁gottlieb	-12.0961
kapsel	-12.0961
▁kriminal	-12.0961
▁schiller	-12.0962
▁eingebunden	-12.0964
▁instanz	-12.0964
hel	-12.0965
pflanze	-12.0965
▁vergangene	-12.0965
▁dream	-12.0967
▁ausführlich	-12.0967
▁genre	-12.0967
▁pea	-12.0969
▁dicke	-12.0969
tief	-12.097
physik	-12.0972
blech	-12.0972
▁riga	-12.0973
▁verkaufs	-12.0973
▁hütte	-12.0974
▁theaterstück	-12.0974
bänder	-12.0975
abbau	-12.0977
▁leit	-12.0978
▁stade	-12.0979
una	-12.098
matrix	-12.0981
anbau	-12.0983
▁zentraler	-12.0983
▁flur	-12.0983
bern	-12.0984
dam	-12.0984
sohle	-12.0986
▁monatlich	-12.0987
werfen	-12.0988
aufenthalt	-12.0989
▁gattin	-12.0989
ship	-12.099
▁kreisstraße	-12.099
▁fortpflanzung	-12.0991
▁hochstift	-12.0992
modul	-12.0992
▁alleinige	-12.0992
▁verdacht	-12.0993
▁sudan	-12.0993
wegs	-12.0995
▁fungiert	-12.0995
iana	-12.0998
▁fördert	-12.0999
▁tschechoslowak	-12.0999
hals	-12.1
▁fpö	-12.1001
▁frederick	-12.1001
herren	-12.1002
▁lösungen	-12.1002
▁akt	-12.1004
strategie	-12.1004
ence	-12.1004
taube	-12.1005
▁liberal	-12.1005
▁stattfinde	-12.1007
höfen	-12.1008
▁himmels	-12.1008
gesang	-12.1008
treckenabschnitt	-12.1008
ziert	-12.101
▁dorfkirche	-12.101
▁vegetation	-12.1011
▁malte	-12.1011
eben	-12.1011
▁segel	-12.1013
sat	-12.1015
▁rosenberg	-12.1017
▁gerecht	-12.102
dampfer	-12.102
▁klassifiziert	-12.102
▁dreizehn	-12.1021
▁115	-12.1021
ente	-12.1026
▁relief	-12.1026
▁student	-12.1027
halt	-12.1027
▁modernisiert	-12.1028
▁photo	-12.1028
seitig	-12.1028
▁wiederholte	-12.103
dock	-12.1032
▁nba	-12.1034
ligist	-12.1035
▁lübecker	-12.1036
skosten	-12.1037
▁propaganda	-12.1037
▁vorbilder	-12.1038
ī	-12.1039
▁herausforderung	-12.1039
▁kolumbien	-12.1041
▁missions	-12.1041
▁belle	-12.1043
berater	-12.1043
▁gymnasiums	-12.1043
▁zweit	-12.1043
▁reinhold	-12.1051
slav	-12.1051
geschichtlich	-12.1052
städte	-12.1053
kranz	-12.1056
itis	-12.1056
worth	-12.1057
epp	-12.1061
▁abgekürzt	-12.1061
▁holländische	-12.1061
oka	-12.1061
▁rechtzeitig	-12.1061
sarbeit	-12.1062
▁jedenfalls	-12.1062
▁verwachsen	-12.1062
▁kalt	-12.1063
odo	-12.1067
sinfonie	-12.1068
▁schlesische	-12.1068
▁monarchie	-12.1071
▁reifen	-12.1071
▁wörter	-12.1072
innenministerium	-12.1073
▁platon	-12.1074
pers	-12.1074
▁nachteile	-12.1075
▁antoine	-12.1076
▁gewässern	-12.1076
▁sichere	-12.1076
▁lies	-12.1078
▁weihnachts	-12.1079
eingang	-12.1079
▁heimlich	-12.108
ue	-12.108
▁gesetzliche	-12.1081
ox	-12.1083
gefahren	-12.1083
▁bäumen	-12.1083
▁gesagt	-12.1084
gerichte	-12.1084
▁antwerpen	-12.1084
▁süß	-12.1084
▁landesweit	-12.1085
▁kun	-12.1085
▁radar	-12.1086
▁verkündete	-12.1086
▁′	-12.1087
▁kl	-12.1087
radio	-12.1088
▁wil	-12.1089
nationaler	-12.1091
▁manhattan	-12.1091
▁singapur	-12.1091
▁festgenommen	-12.1092
lücke	-12.1094
▁typen	-12.1094
▁theoretisch	-12.1097
satzes	-12.1099
elt	-12.1099
kes	-12.11
zugreifen	-12.1103
kop	-12.1104
▁nebel	-12.1105
▁streitigkeit	-12.1107
▁verfilmt	-12.1107
kräften	-12.111
▁einflussreiche	-12.111
▁minderheiten	-12.1112
▁lukas	-12.1116
▁repertoire	-12.1119
omi	-12.1121
▁weitestgehend	-12.1122
▁plateau	-12.1122
kra	-12.1122
▁gefüllt	-12.1123
▁trauer	-12.1123
▁ereignissen	-12.1124
▁evangelischer	-12.1125
▁trivia	-12.1125
▁objektiv	-12.1126
▁elfte	-12.1127
größen	-12.113
vic	-12.1132
systemen	-12.1132
▁vermieden	-12.1133
▁giro	-12.1133
▁braut	-12.1135
▁laufzeit	-12.1135
▁deportiert	-12.1136
hs	-12.1136
▁prediger	-12.1141
ringe	-12.1142
auftritten	-12.1143
▁erheben	-12.1144
▁grundsatz	-12.1145
äh	-12.1146
▁germanische	-12.1146
▁89	-12.1146
▁light	-12.1148
▁weitaus	-12.115
▁schiedsrichter	-12.1152
▁anspielung	-12.1153
dell	-12.1153
▁fifa	-12.1154
belastung	-12.1154
▁kreuzes	-12.1159
bekämpfung	-12.1159
▁maßnahme	-12.1159
▁angehört	-12.1161
stol	-12.1161
▁soziales	-12.1161
hülle	-12.1162
▁gespalten	-12.1163
ct	-12.1164
einnahmen	-12.1169
bruderschaft	-12.117
▁berner	-12.1171
forscher	-12.1171
▁nest	-12.1172
▁verdient	-12.1173
▁stärken	-12.1173
ée	-12.1178
schaften	-12.118
▁chronik	-12.1185
▁zünd	-12.1186
ware	-12.1187
wacht	-12.1187
▁beweisen	-12.1188
▁gemein	-12.119
▁orient	-12.1192
▁überlegen	-12.1193
brom	-12.1194
▁pension	-12.1196
▁sockel	-12.1199
▁old	-12.1199
note	-12.1199
▁franco	-12.12
▁terminal	-12.1201
▁bergwerk	-12.1201
sac	-12.1202
verträge	-12.1202
▁profil	-12.1203
▁marseille	-12.1204
pfälzische	-12.1208
▁blitz	-12.1209
▁widmet	-12.1209
▁niedersächsisch	-12.121
▁längste	-12.1211
ová	-12.1212
▁cre	-12.1213
▁kaufmännische	-12.1213
orte	-12.1213
▁dallas	-12.1214
▁steigern	-12.1218
▁andy	-12.1219
▁1.000	-12.1222
▁hauptquartier	-12.1224
ug	-12.1225
▁fuße	-12.1225
▁zugriff	-12.1227
trug	-12.1228
▁marktgemeinde	-12.1228
▁zusammengesetzt	-12.1229
▁mosel	-12.123
ero	-12.1231
▁harris	-12.1232
▁ernähren	-12.1234
▁gemahlin	-12.1239
put	-12.1239
▁fließend	-12.1239
drücken	-12.124
durchmesser	-12.124
▁verfolgen	-12.1244
rüstung	-12.1244
▁québec	-12.1245
▁zeichnungen	-12.1246
▁tai	-12.125
ssystem	-12.1251
▁namibia	-12.1252
inner	-12.1254
▁giuseppe	-12.1255
▁gewertet	-12.1255
▁genua	-12.1255
▁trophy	-12.1255
gram	-12.1257
▁stimmung	-12.1258
▁staatsbahn	-12.1258
partie	-12.1258
klosters	-12.1259
ł	-12.126
kehr	-12.126
▁neutral	-12.126
▁bürgerschaft	-12.1262
▁tarif	-12.1264
▁tut	-12.1265
▁mörder	-12.1265
▁löst	-12.1266
sler	-12.1267
▁level	-12.1267
▁blüte	-12.1268
bedingt	-12.1268
▁statistischen	-12.1269
▁volker	-12.1269
▁hörte	-12.127
reifen	-12.127
▁proteste	-12.127
▁weich	-12.1273
stuhl	-12.1274
▁anbindung	-12.1274
eten	-12.1275
otto	-12.1276
▁verlängerte	-12.1278
▁zivilist	-12.1282
standsmitglied	-12.1285
▁operative	-12.1286
▁verwechseln	-12.1286
▁beruflich	-12.1286
▁wiederaufstieg	-12.1287
widerstand	-12.1287
▁feind	-12.129
▁periode	-12.1291
rä	-12.1293
usch	-12.1294
▁markgraf	-12.1295
techniken	-12.1296
höhenunterschied	-12.1296
keller	-12.1297
▁engels	-12.1299
▁burschenschaft	-12.13
▁landwirtschafts	-12.1301
▁mittig	-12.1303
▁steg	-12.1305
▁dich	-12.1305
reiter	-12.1306
▁disziplinen	-12.1306
▁gesteigert	-12.1307
bearbeitung	-12.1307
▁japanisch	-12.1308
klima	-12.131
▁konzern	-12.1313
▁werbung	-12.1313
▁valentin	-12.1313
▁betraf	-12.1314
▁betraut	-12.1314
fernsehen	-12.1314
▁geschmack	-12.1315
▁bevorzugte	-12.1316
▁folglich	-12.1317
mers	-12.1318
yu	-12.1318
▁durchschnitt	-12.1321
▁story	-12.1325
▁ruhrgebiet	-12.1325
▁network	-12.1325
zentrums	-12.1326
▁ernest	-12.1326
▁arzneimittel	-12.1328
▁entkommen	-12.1328
▁akten	-12.1329
▁massaker	-12.133
▁entscheidungs	-12.133
reißen	-12.133
gue	-12.1331
▁campus	-12.1334
ruh	-12.1334
▁bremerhaven	-12.1338
▁fresken	-12.1338
sphase	-12.1339
▁moon	-12.1342
▁ausgegangen	-12.1342
▁amtierte	-12.1343
passage	-12.1347
▁kinderlos	-12.1347
▁baseball	-12.1348
▁erweitern	-12.1348
stich	-12.135
▁umgestaltung	-12.1351
mengen	-12.1352
fix	-12.1354
▁elementen	-12.1354
▁kommunen	-12.1355
fug	-12.1356
▁anschlussstelle	-12.1357
▁stewart	-12.1359
▁verwickelt	-12.1359
schwarz	-12.1359
▁monaco	-12.1359
reg	-12.136
▁landesliga	-12.136
▁auswertung	-12.1362
▁geformt	-12.1363
ketten	-12.1364
bäume	-12.1365
▁landwirt	-12.1365
▁höfe	-12.1366
rank	-12.1368
▁armenische	-12.1368
▁jens	-12.1368
▁jüngsten	-12.1368
▁offener	-12.137
finanzierung	-12.137
schauspieler	-12.1372
▁haltestelle	-12.1372
icus	-12.1372
bricht	-12.1376
▁1788	-12.1376
▁takt	-12.1377
rhein	-12.1379
kö	-12.138
▁tausende	-12.1389
▁sicherung	-12.139
▁verzeichnen	-12.1391
▁becken	-12.1393
▁sauer	-12.1394
▁aufsichtsrat	-12.1394
▁delegation	-12.1397
▁erstellen	-12.14
▁revision	-12.14
▁departamento	-12.14
▁hinterlassen	-12.1401
▁kreuzzug	-12.1403
▁sexuelle	-12.1403
slaw	-12.1404
▁atem	-12.1404
▁waldeck	-12.1405
▁werkzeug	-12.1407
▁ständige	-12.1407
▁attentat	-12.1408
▁estnische	-12.141
cola	-12.1411
bebauung	-12.1411
▁delaware	-12.1411
▁durchführen	-12.1412
▁gewerbegebiet	-12.1414
würdig	-12.1419
▁ryan	-12.1421
wing	-12.1422
aris	-12.1423
▁sitzverteilung	-12.1423
bachs	-12.1423
main	-12.1424
umfang	-12.1425
▁chief	-12.1425
▁boris	-12.1426
▁mediziner	-12.1427
ça	-12.143
par	-12.143
▁betonte	-12.143
▁entwässert	-12.1432
▁mathematisch	-12.1433
▁sprachliche	-12.1433
schmuck	-12.1433
▁grube	-12.1434
▁kelly	-12.1434
▁spätgotische	-12.1435
▁bauteile	-12.1436
▁bomber	-12.1438
▁01	-12.1438
iel	-12.1439
▁steine	-12.1442
schüsse	-12.1442
▁fokus	-12.1442
schirm	-12.1444
▁befestigte	-12.1444
▁erstellung	-12.1446
▁stollen	-12.1447
pumpen	-12.1447
▁detail	-12.1449
richten	-12.145
radweg	-12.1451
▁wahre	-12.1452
▁julian	-12.1453
amtes	-12.1454
brachte	-12.1455
uni	-12.1455
höhen	-12.1458
▁ausbreitung	-12.146
▁zimmermann	-12.146
▁wettkämpfe	-12.146
wahrscheinlich	-12.1461
▁métro	-12.1463
▁robinson	-12.1464
kult	-12.1465
▁spa	-12.1465
sau	-12.1466
haar	-12.1467
▁hil	-12.1468
▁nachfolgend	-12.1468
▁dichtung	-12.1469
▁gefangene	-12.1469
drama	-12.147
▁alm	-12.1471
bai	-12.1472
▁differential	-12.1472
▁gitarren	-12.1472
▁dame	-12.1474
quin	-12.1477
norm	-12.1477
▁samstag	-12.1479
▁bsg	-12.148
▁rau	-12.1481
▁plant	-12.1481
neigung	-12.1482
▁gewebe	-12.1485
jahrestag	-12.1487
altar	-12.1488
▁verbleibende	-12.1488
▁lebzeit	-12.1491
bv	-12.1492
▁stadtteils	-12.1493
▁nordafrika	-12.1493
edo	-12.1493
▁bezahlt	-12.1493
krankheiten	-12.1494
▁vertreibung	-12.1495
▁leonhard	-12.1496
▁gemüse	-12.1497
erei	-12.1498
manöver	-12.1505
▁glasgow	-12.1506
▁entscheidet	-12.1506
bw	-12.1506
▁elster	-12.1507
▁teilgenommen	-12.1509
▁bureau	-12.1512
▁frühling	-12.1512
vp	-12.1512
▁bedürfnisse	-12.1513
▁beobachtungen	-12.1519
▁schwan	-12.152
▁ackerbau	-12.1524
▁360	-12.1524
▁äußerlich	-12.1527
▁behauptung	-12.1527
tb	-12.1527
▁vorschläge	-12.1528
▁provisorische	-12.1531
▁gängige	-12.1531
hause	-12.1532
▁wohlhabende	-12.1532
▁elektronisch	-12.1536
▁abwesenheit	-12.1537
▁preisträger	-12.1539
▁1787	-12.1541
▁second	-12.1541
▁hut	-12.1542
becher	-12.1545
lys	-12.1545
▁hubschrauber	-12.1545
türmen	-12.1545
▁stammspieler	-12.1551
ong	-12.1553
▁verteilen	-12.1554
▁polar	-12.1555
wappen	-12.1556
▁gebirgs	-12.1556
▁kongo	-12.1556
▁leiche	-12.1557
reiten	-12.1559
▁kapellen	-12.1561
▁silva	-12.1561
▁gesteuert	-12.1561
▁belastet	-12.1562
▁bronzezeit	-12.1562
▁rechen	-12.1562
▁halbes	-12.1565
ausgaben	-12.1565
▁bemerkt	-12.1565
▁his	-12.1565
gary	-12.1566
▁derart	-12.1568
▁ecken	-12.1569
distanz	-12.157
▁experimente	-12.1571
▁bewegungs	-12.1571
pc	-12.1573
▁schah	-12.1573
gestalt	-12.1579
hus	-12.1581
▁geprüft	-12.1581
▁bedingung	-12.1581
▁einzusetzen	-12.1582
▁walker	-12.1582
▁geschmückt	-12.1582
▁abgaben	-12.1582
▁steuerung	-12.1583
▁halbe	-12.1584
▁sterne	-12.1584
plattform	-12.1585
▁schmuck	-12.1585
▁nasa	-12.1587
▁helle	-12.1587
▁sparta	-12.1588
illo	-12.1589
▁schlagen	-12.159
▁statuen	-12.1591
▁getestet	-12.1591
▁unerwartet	-12.1591
▁libanon	-12.1593
▁garden	-12.1593
einheitlichen	-12.1593
tiefe	-12.1594
gard	-12.1595
blöcke	-12.1596
▁negativen	-12.1597
kalender	-12.1597
tius	-12.1599
schwein	-12.1599
▁schlangen	-12.16
motiv	-12.16
▁schauspielhaus	-12.1601
partien	-12.1601
louis	-12.1601
▁renault	-12.1601
▁streich	-12.1602
▁düren	-12.1602
▁käufer	-12.1605
▁außergewöhnlich	-12.1605
krug	-12.1607
zelt	-12.1608
▁vergrößerte	-12.1609
▁spi	-12.1609
▁vorbehalten	-12.1611
▁prior	-12.1611
▁andauernde	-12.1612
▁obst	-12.1614
▁kaufleute	-12.1615
▁steinbruch	-12.1615
schritt	-12.1619
▁geschlechter	-12.162
gras	-12.1622
▁kreisen	-12.1622
sek	-12.1623
iro	-12.1623
▁mohammed	-12.1623
▁project	-12.1623
▁großstadt	-12.1625
▁hütten	-12.1626
▁rückgang	-12.1626
▁hauptgebäude	-12.163
ère	-12.163
eiche	-12.1632
▁jam	-12.1632
less	-12.1633
▁entnommen	-12.1633
▁raimund	-12.1633
tod	-12.1634
▁kommende	-12.1637
ela	-12.1637
▁kirchenschiff	-12.1638
▁option	-12.1639
szenen	-12.164
▁fischerei	-12.164
▁studiert	-12.1641
kante	-12.1642
▁vegas	-12.1643
▁ungeklärt	-12.1644
▁volksmund	-12.1645
▁wahlbeteiligung	-12.1645
▁sofia	-12.1646
▁jenen	-12.1647
▁separate	-12.1649
bänden	-12.1649
psychologie	-12.1651
▁anzunehmen	-12.1652
▁mtv	-12.1652
km	-12.1653
kraftwerk	-12.1653
▁selbstmord	-12.1653
▁emeritierung	-12.1655
▁hor	-12.1655
▁spin	-12.1655
jahres	-12.1656
▁hub	-12.1656
▁silver	-12.1657
österreichische	-12.1658
ld	-12.1659
▁barocken	-12.1659
öffnung	-12.1659
▁häftlinge	-12.1661
▁terror	-12.1661
ech	-12.1661
schalter	-12.1662
▁wuchshöhe	-12.1663
▁glaubte	-12.1665
▁publizist	-12.1667
▁förderer	-12.1668
▁wahlkampf	-12.1669
▁bundesbahn	-12.1669
▁springer	-12.167
wangen	-12.1671
▁umso	-12.1671
ings	-12.1672
fordern	-12.1672
▁pater	-12.1674
▁zink	-12.1675
▁niedrig	-12.1677
▁shi	-12.1677
▁casa	-12.1677
▁erfunden	-12.1683
▁grafik	-12.1684
▁beinamen	-12.1684
▁scheinen	-12.1685
▁berges	-12.1685
▁fische	-12.1685
▁kohlen	-12.1685
▁empire	-12.1685
▁area	-12.1686
freunde	-12.1687
▁marshall	-12.1689
▁betriebene	-12.1689
sees	-12.169
verbund	-12.169
▁vertraut	-12.1691
▁folgend	-12.1692
▁perg	-12.1693
▁schmiede	-12.1694
hong	-12.1697
▁boulevard	-12.1697
▁gespeichert	-12.1698
▁aufgegriffen	-12.1698
waffenstillstand	-12.1698
▁butler	-12.1699
kg	-12.1699
▁feierlich	-12.1701
▁donald	-12.1702
▁ergänzung	-12.1703
weite	-12.1704
000	-12.1704
▁claudia	-12.1715
▁135	-12.1716
▁class	-12.1717
▁konzepte	-12.1717
▁symbolisiert	-12.1718
ović	-12.1719
schwankung	-12.1719
▁pkw	-12.172
▁arnsberg	-12.1721
▁boten	-12.1722
▁hard	-12.1722
▁liber	-12.1724
▁treppen	-12.1725
▁laura	-12.1726
menschen	-12.1726
▁bosnien	-12.1727
▁bahnlinie	-12.1728
▁trockenen	-12.1729
arrondissement	-12.1729
kupplung	-12.173
▁sichtbare	-12.1731
rippen	-12.1731
▁diagnose	-12.1732
▁garnison	-12.1734
▁portland	-12.1734
rats	-12.1736
▁mobil	-12.1736
bring	-12.1738
▁match	-12.174
▁comeback	-12.1741
statistik	-12.1742
nos	-12.1742
▁gräber	-12.1743
▁mandate	-12.1744
▁ewige	-12.1745
▁anonym	-12.1746
▁thematisiert	-12.175
▁gesundheitliche	-12.1754
▁sven	-12.1755
▁director	-12.1755
▁pietro	-12.1756
itt	-12.1756
▁get	-12.1756
▁erstreckte	-12.1758
fremd	-12.176
▁gerichtsbarkeit	-12.1761
kaiser	-12.1763
▁angelehnt	-12.1763
▁marianne	-12.1765
▁watt	-12.1765
▁bereitete	-12.1765
sieger	-12.1766
▁sara	-12.1766
▁erteilte	-12.1766
-3	-12.1768
▁künstlerin	-12.1769
▁rangers	-12.1769
anten	-12.177
big	-12.1771
▁operationen	-12.1772
ät	-12.1772
schlagen	-12.1773
▁beliebtheit	-12.1774
▁dis	-12.1776
▁ivan	-12.1776
zeigen	-12.1776
beratung	-12.1777
▁evans	-12.1778
▁amtlich	-12.1778
▁stützpunkt	-12.1779
walde	-12.1779
kandidaten	-12.178
flanke	-12.1782
▁litauen	-12.1782
tals	-12.1783
▁sprachgebrauch	-12.1785
cle	-12.1786
vorsteher	-12.1786
orientierte	-12.1787
▁beliebtes	-12.1787
▁hills	-12.1787
▁formuliert	-12.1788
▁ev	-12.179
hafte	-12.179
kanäle	-12.1791
▁singen	-12.1793
▁einheitlich	-12.1794
▁saarland	-12.1794
probe	-12.1795
▁sd	-12.1796
▁ausfall	-12.1797
▁anime	-12.1797
nahen	-12.1798
tow	-12.1802
▁britisch	-12.1805
▁fracht	-12.1806
▁carr	-12.1806
▁aufge	-12.1807
▁gärten	-12.1807
schwerpunkt	-12.1808
▁ausprägung	-12.181
yama	-12.1812
probleme	-12.1815
▁senator	-12.1815
▁40.000	-12.1815
▁wanderwege	-12.1816
bereit	-12.1817
▁freigelegt	-12.1818
gene	-12.1818
dörfer	-12.182
operator	-12.1822
▁derzeitige	-12.1822
nov	-12.1823
issen	-12.1823
forum	-12.1825
▁bekämpfung	-12.1832
▁hinauf	-12.1833
▁homo	-12.1833
brock	-12.1833
▁cruz	-12.1833
▁porta	-12.1834
meisterin	-12.1836
▁vorgang	-12.1836
▁geleistet	-12.1839
hauser	-12.1839
▁verschlossen	-12.1839
mäuse	-12.184
luk	-12.184
▁nadel	-12.1841
▁griffen	-12.1841
eller	-12.1842
▁102	-12.1846
rd	-12.1846
▁lehnt	-12.1846
kurse	-12.1847
▁heimatland	-12.1848
▁mig	-12.1848
▁lyrik	-12.1849
▁angeregt	-12.185
▁umstellung	-12.1852
▁dunkler	-12.1853
master	-12.1854
▁integrierte	-12.1855
▁instand	-12.1858
▁event	-12.1858
▁freud	-12.1858
▁vorwurf	-12.1858
▁zerstören	-12.1861
▁rebellen	-12.1861
wurm	-12.1861
▁raymond	-12.1861
▁schröder	-12.1861
▁puerto	-12.1863
▁200.000	-12.1863
▁ermitteln	-12.1863
▁230	-12.1864
▁marschierte	-12.1864
▁osteuropa	-12.1864
▁konferenz	-12.1865
georg	-12.1866
▁asche	-12.1866
gitter	-12.1868
▁gelagert	-12.1869
bucht	-12.1871
▁independent	-12.1872
▁beratung	-12.1872
▁größen	-12.1873
objekte	-12.1875
▁gerechtigkeit	-12.1877
gemeinderatswahl	-12.1878
▁zahlung	-12.1879
▁unterbrechung	-12.188
bö	-12.1881
▁eingeschlossen	-12.1881
▁sozialer	-12.1881
▁vorgänge	-12.1882
­	-12.1883
▁swiss	-12.1883
▁tötet	-12.1883
▁prinzipien	-12.1884
▁landesherr	-12.1888
▁mö	-12.1889
stahl	-12.1889
▁radikalen	-12.1891
▁inbetriebnahme	-12.1893
▁stapel	-12.1893
▁athleten	-12.1894
meisters	-12.1895
stempel	-12.1895
knochen	-12.1896
taste	-12.1896
▁burganlage	-12.1897
▁bas	-12.1897
▁effekt	-12.1899
haube	-12.19
rak	-12.19
▁gleichmäßig	-12.1903
▁rotterdam	-12.1905
▁jonathan	-12.1905
▁bordeaux	-12.1905
kamen	-12.1905
▁fruchtbar	-12.1905
ous	-12.1906
lane	-12.1909
▁krankheiten	-12.1909
▁brauch	-12.191
▁tagebuch	-12.1911
funktionär	-12.1911
▁ausstellungs	-12.1911
▁kit	-12.1912
▁reife	-12.1914
▁aufzeichnung	-12.1914
▁bush	-12.1916
▁maryland	-12.1921
paket	-12.1923
alm	-12.1923
armen	-12.1923
▁edinburgh	-12.1927
acher	-12.1929
▁rem	-12.193
trasse	-12.1933
tica	-12.1934
▁hervorragende	-12.1934
pö	-12.1936
▁chinesisch	-12.1936
▁holocaust	-12.1936
806	-12.1936
▁lawrence	-12.1938
▁scho	-12.194
ün	-12.194
pri	-12.1941
▁grammy	-12.1943
▁springen	-12.1944
▁stifter	-12.1944
dit	-12.1944
lack	-12.1944
gegeben	-12.1945
▁ngc	-12.1945
▁helfer	-12.1945
▁illegal	-12.1946
▁klare	-12.1947
▁atlanta	-12.1949
▁gerichte	-12.1949
▁mehrzahl	-12.1951
▁mass	-12.1951
70	-12.1954
festigkeit	-12.1954
▁türen	-12.1954
ă	-12.1955
▁hallen	-12.1955
▁bergleute	-12.1955
▁bewohnte	-12.1956
▁mach	-12.196
▁synthese	-12.1961
▁überwachung	-12.1962
▁gemeindewappen	-12.1963
hilf	-12.1964
▁kommune	-12.1965
bewertung	-12.1966
gattung	-12.197
pumpe	-12.197
▁wüsten	-12.197
▁malaysia	-12.1971
wies	-12.1977
90	-12.1977
gleise	-12.198
manufaktur	-12.1982
▁bewegungen	-12.1983
▁zeilen	-12.1983
genommen	-12.1984
▁ungarisch	-12.1984
▁eisenbahnlinie	-12.1986
but	-12.1986
ridge	-12.1987
▁kompromiss	-12.1988
▁grundstücke	-12.1988
▁server	-12.1989
▁alexandria	-12.1989
▁typus	-12.1989
mächte	-12.199
▁getauft	-12.199
▁départements	-12.1991
▁algerien	-12.1993
▁iucn	-12.1993
riss	-12.1994
erklärung	-12.1996
▁stolz	-12.1996
stellvertretende	-12.1996
uth	-12.1999
▁sommerspiele	-12.1999
abschnitte	-12.2
▁theoretische	-12.2001
▁heart	-12.2001
▁dominierte	-12.2003
▁bundesver	-12.2004
▁alltag	-12.2004
▁magdalena	-12.2004
turbine	-12.2005
dek	-12.2006
▁year	-12.2006
gli	-12.2006
angehörigen	-12.2012
▁lippe	-12.2015
regulierung	-12.2015
▁strahlen	-12.2016
flu	-12.2017
▁globale	-12.2019
▁bauliche	-12.202
▁ära	-12.2021
▁pfarrhaus	-12.2022
▁teich	-12.2023
▁flam	-12.2023
▁app	-12.2026
bier	-12.2026
▁entführt	-12.2026
▁sportlich	-12.2026
▁birken	-12.2026
schleuse	-12.2027
provinz	-12.2027
tg	-12.2028
▁bobby	-12.2028
▁mill	-12.2029
▁beschäftigen	-12.2029
▁filmmusik	-12.203
▁behalten	-12.203
▁erziehende	-12.203
entwurf	-12.2031
▁rumänische	-12.2032
▁geometrie	-12.2034
▁nahrungsmittel	-12.2035
▁gent	-12.2036
märkte	-12.2038
▁rekonstruiert	-12.2038
▁miguel	-12.2038
▁veranstalter	-12.2038
▁tafel	-12.2039
▁lauten	-12.2042
▁beliebige	-12.2042
▁stilistisch	-12.2043
▁friedhofs	-12.2044
▁parallelen	-12.2045
pho	-12.2048
▁nicaragua	-12.2049
▁venezuela	-12.2049
▁matthäus	-12.2049
▁verfall	-12.2049
▁stängel	-12.2049
▁stabil	-12.205
▁aspekt	-12.205
▁grabungen	-12.2052
loo	-12.2053
▁überwinden	-12.2055
banken	-12.2055
jenige	-12.2056
▁petr	-12.2056
feldmarschall	-12.2057
▁räumliche	-12.2058
clubs	-12.2058
lampen	-12.206
▁entfallen	-12.2061
▁sumpf	-12.2062
partikel	-12.2063
▁joint	-12.2064
▁porträts	-12.2065
▁gewählte	-12.2066
▁geologische	-12.2066
parteitag	-12.2067
▁lieber	-12.2069
▁bahnsteig	-12.2072
▁ungewöhnliche	-12.2072
▁chemisch	-12.2072
▁einigung	-12.2072
▁kontrast	-12.2073
▁drachen	-12.2073
ej	-12.2074
▁alfons	-12.2074
▁komponiert	-12.2075
▁warschauer	-12.2075
▁südlicher	-12.2076
▁hass	-12.2077
kus	-12.2077
list	-12.2078
▁kling	-12.2078
▁plauen	-12.2078
▁summer	-12.2078
▁harte	-12.2078
▁fahrbahn	-12.2079
▁aufträge	-12.2079
▁bewahren	-12.2079
▁eigenständig	-12.208
▁unternommen	-12.2082
▁hauptfigur	-12.2085
verfilmung	-12.2085
eins	-12.2086
lob	-12.2087
anzeige	-12.2088
▁spätantike	-12.2089
vikar	-12.209
▁stadtrecht	-12.2091
▁champ	-12.2092
▁erforscht	-12.2093
▁fälschlich	-12.2094
fal	-12.2094
herd	-12.2094
räte	-12.2096
▁lernt	-12.2097
▁vers	-12.2098
▁such	-12.2098
▁rohrbach	-12.2099
▁sho	-12.21
▁marsch	-12.2101
▁masters	-12.2104
indien	-12.2104
▁zweigt	-12.2104
▁pianist	-12.2104
▁hampshire	-12.2105
▁unsicher	-12.2105
bock	-12.2106
▁dimension	-12.2106
▁gun	-12.2106
▁flugzeugträger	-12.2108
▁nations	-12.2109
▁sparkasse	-12.211
1.0	-12.2113
▁wäldern	-12.2114
▁pic	-12.2115
▁leutnant	-12.2115
▁rod	-12.2115
istisch	-12.2116
▁astronomie	-12.2116
▁kirchturm	-12.2119
▁debatte	-12.2122
shan	-12.2122
▁querschnitt	-12.2123
▁unterhaltung	-12.2125
hauer	-12.2125
▁tempo	-12.2125
▁stralsund	-12.2127
▁lüttich	-12.2128
bestimmung	-12.2128
▁gläubiger	-12.2129
▁komplex	-12.2129
▁111	-12.213
▁eisenach	-12.213
▁gruben	-12.213
▁hilft	-12.2131
atz	-12.2131
chang	-12.2132
tiv	-12.2133
▁entzogen	-12.2134
▁bewegte	-12.2137
▁glücklich	-12.2138
wolf	-12.2138
▁genetische	-12.2139
▁department	-12.215
▁tennessee	-12.215
klage	-12.215
▁zufluss	-12.2151
▁oh	-12.2152
vert	-12.2153
▁schuljahr	-12.2153
▁formulierung	-12.2154
▁gemischt	-12.2154
▁skulptur	-12.2155
▁erziehungs	-12.2156
▁berühmteste	-12.2158
▁erforderlichen	-12.2159
▁clubs	-12.2161
generator	-12.2162
▁spar	-12.2163
▁comics	-12.2163
schub	-12.2164
▁handschriften	-12.2164
▁stgb	-12.2165
▁gesetzgebung	-12.2166
uta	-12.2167
▁spielstätte	-12.2169
▁guy	-12.2169
sportler	-12.2169
▁steel	-12.2171
▁teilchen	-12.2171
▁karibik	-12.2173
▁kings	-12.2174
rac	-12.2176
ffer	-12.2176
▁sammler	-12.2177
▁veranstaltete	-12.2177
parlamentarische	-12.2178
▁habilitation	-12.2178
▁einordnung	-12.2178
▁jon	-12.2179
enne	-12.218
set	-12.218
▁einmündung	-12.2182
▁ökologie	-12.2182
▁hunt	-12.2183
▁madonna	-12.2183
▁tank	-12.2184
öd	-12.2184
termin	-12.2185
▁konzentrier	-12.2186
gitarre	-12.2186
sängerin	-12.219
▁schallplatten	-12.2192
▁bedienen	-12.2194
riet	-12.2195
▁ähneln	-12.2195
▁brühl	-12.2195
▁literarisch	-12.2196
▁liu	-12.2196
▁dato	-12.2196
▁verbund	-12.2197
▁pul	-12.2198
▁schmal	-12.22
▁fiat	-12.2203
▁gewerkschafts	-12.2204
▁kernkraftwerk	-12.2207
▁wahrzeichen	-12.2207
▁maxim	-12.2209
▁wohlstand	-12.2211
▁flugzeugen	-12.2215
schneiden	-12.2218
▁hudson	-12.2218
▁illegale	-12.2219
stamm	-12.2221
▁logo	-12.2223
▁ähnlicher	-12.2223
▁schweine	-12.2224
▁schildert	-12.2224
▁office	-12.2225
▁herab	-12.2225
▁erfolgs	-12.2228
▁angezeigt	-12.2229
▁söldner	-12.2229
▁jugoslawische	-12.2229
▁ausgeübt	-12.2229
▁braunkohle	-12.223
gürtel	-12.223
hack	-12.2231
▁ralf	-12.2231
▁humanistische	-12.2232
▁herausgabe	-12.2236
▁reden	-12.2237
▁handschrift	-12.2238
nuss	-12.2238
▁bü	-12.2239
▁reagieren	-12.2241
▁utah	-12.2241
▁armenien	-12.2242
deckel	-12.2242
aktivität	-12.2242
▁laufend	-12.2242
▁betrachtete	-12.2243
▁103	-12.2243
ila	-12.2244
▁beeinflusste	-12.2246
nah	-12.2248
▁dauerhafte	-12.2248
▁zuzuordnen	-12.2249
▁xiv	-12.225
▁experiment	-12.2251
▁verbrannt	-12.2252
▁äthiopien	-12.2252
▁engineering	-12.2252
▁krakau	-12.2256
▁niederschläge	-12.2257
mina	-12.226
▁bab	-12.2261
lk	-12.2261
anstieg	-12.2262
▁anknüpfen	-12.2262
mauern	-12.2263
▁versenkt	-12.2263
▁besichtigt	-12.2263
dé	-12.2264
▁schwab	-12.2264
▁krautige	-12.2267
▁chas	-12.2267
▁pilz	-12.227
▁westlicher	-12.2271
egger	-12.2273
▁kirk	-12.2274
asse	-12.2274
▁zerfall	-12.2275
▁kandidatur	-12.2276
▁stattgefunden	-12.2276
pendler	-12.2277
▁ggf	-12.2277
▁jason	-12.2278
eber	-12.2279
▁duell	-12.2279
▁oberamt	-12.2282
▁estland	-12.2284
ald	-12.2285
▁polens	-12.2286
kanten	-12.2287
▁verlangen	-12.2287
db	-12.2287
▁schwager	-12.2287
yoshi	-12.2288
▁strukturiert	-12.2288
▁geburtsort	-12.2288
▁semester	-12.229
▁château	-12.2294
gehäuse	-12.2295
▁versorgen	-12.2298
▁vorgeschrieben	-12.2298
▁theologen	-12.2299
versionen	-12.2299
▁prosa	-12.2299
▁längst	-12.2302
▁nördlicher	-12.2302
niedersächsische	-12.2303
linge	-12.2304
▁stoffe	-12.2305
lutherisch	-12.2307
any	-12.2308
▁äußerung	-12.2309
▁nu	-12.2309
wolfenbüttel	-12.2309
▁maría	-12.2309
maximilians	-12.231
▁lehm	-12.2313
▁2-	-12.2314
2-	-12.2314
▁ereignete	-12.2317
zulassen	-12.2318
max	-12.2319
flor	-12.2319
▁heimisch	-12.232
▁märtyrer	-12.2321
ore	-12.2322
teilnahmen	-12.2324
▁lex	-12.2324
▁vordere	-12.2325
▁ferien	-12.2325
▁salon	-12.2326
röhre	-12.2328
▁ablehnte	-12.233
▁schulgebäude	-12.233
gers	-12.233
▁maßstab	-12.2331
haften	-12.2332
▁überschwemmung	-12.2332
▁ralph	-12.2332
stars	-12.2332
▁grabstätte	-12.2333
▁westküste	-12.2334
▁race	-12.2335
▁interviews	-12.2335
▁verweigerte	-12.2335
kanals	-12.2342
▁phoenix	-12.2344
▁jar	-12.2344
inter	-12.2346
2.0	-12.2351
▁künstlers	-12.2352
▁hey	-12.2353
▁porzellan	-12.2354
▁psychologische	-12.2355
raten	-12.2355
▁dorothea	-12.2355
▁palermo	-12.2355
kowski	-12.2356
▁absolvieren	-12.2357
▁roche	-12.2359
schwäche	-12.236
▁buddhistische	-12.2362
▁schm	-12.2362
▁nick	-12.2363
hal	-12.2363
▁nerven	-12.2363
ecker	-12.2364
stehende	-12.2364
▁virtuelle	-12.2364
▁alpine	-12.2365
▁umgestellt	-12.2366
▁wiederholung	-12.2366
haltige	-12.2368
eta	-12.2368
gefieder	-12.2369
▁angehören	-12.237
kanzler	-12.2371
▁bande	-12.2372
▁dicken	-12.2373
ches	-12.2374
gri	-12.2374
▁four	-12.2374
bass	-12.2375
▁tante	-12.2376
▁salt	-12.2376
übungen	-12.2376
muschel	-12.2378
▁birmingham	-12.2378
▁jur	-12.2379
rc	-12.238
▁wdr	-12.2381
▁lok	-12.2381
kassel	-12.2382
▁nicolas	-12.2384
▁unentschieden	-12.2384
mara	-12.2386
fleisch	-12.2386
sow	-12.2387
kolonie	-12.2387
chlorid	-12.2388
▁fundament	-12.2389
neuguinea	-12.239
▁terra	-12.239
▁geheimdienst	-12.239
▁stirn	-12.239
bell	-12.2391
▁grundwasser	-12.2394
hua	-12.2394
▁krisen	-12.2394
loge	-12.2395
▁fließen	-12.2396
▁anhängern	-12.2397
▁nathan	-12.2398
dez	-12.2398
▁command	-12.2398
palette	-12.2399
▁sehenswert	-12.24
▁populäre	-12.24
▁vr	-12.2402
law	-12.2402
▁berührung	-12.2405
abd	-12.241
▁grundsätze	-12.2411
▁weltweite	-12.2412
nz	-12.2412
▁oberlauf	-12.2412
▁tischtennis	-12.2413
▁book	-12.2413
rim	-12.2413
▁fortuna	-12.2414
▁104	-12.2414
▁shakespeare	-12.2415
▁borough	-12.2415
lief	-12.2415
▁niederländer	-12.2416
▁dokument	-12.2416
iva	-12.2419
nig	-12.2419
▁endrunde	-12.242
▁anlegen	-12.2421
▁überließ	-12.2421
prim	-12.2422
▁solar	-12.2423
erkrankung	-12.2425
▁diesel	-12.2426
iti	-12.2426
duc	-12.2426
mol	-12.2427
▁dol	-12.2427
▁emeritiert	-12.2428
gebirges	-12.2428
▁verbaut	-12.2428
▁nor	-12.2429
jos	-12.2429
geschaltet	-12.243
▁momentan	-12.2432
krebs	-12.2432
gefahr	-12.2432
tun	-12.2434
aid	-12.2436
▁avancierte	-12.2436
▁disney	-12.2436
▁bautzen	-12.2436
▁richtlinien	-12.2437
▁lobte	-12.2439
▁krupp	-12.244
▁beurteilung	-12.244
▁neueste	-12.2441
▁kannte	-12.2444
schatz	-12.2445
▁hochaltar	-12.2447
▁bundespräsident	-12.2448
▁säkularisation	-12.2448
▁nebst	-12.2448
▁organisieren	-12.2449
▁fühlt	-12.2449
▁abstände	-12.245
▁benutzung	-12.2451
▁ernte	-12.2453
▁verwirklicht	-12.2455
▁fasste	-12.2457
lehn	-12.2458
beteiligung	-12.2459
▁abschnitte	-12.246
▁25.000	-12.2461
▁salomon	-12.2463
▁prominente	-12.2463
ständen	-12.2464
▁shin	-12.2467
taucher	-12.2468
▁zeitgenossen	-12.2469
▁gefühle	-12.2471
▁etymologie	-12.2471
▁gefragt	-12.2473
▁fächer	-12.2473
ş	-12.2473
▁ganzes	-12.2474
▁6000	-12.2474
▁mountain	-12.2475
▁nil	-12.2476
▁örtlich	-12.2478
ile	-12.2479
kw	-12.2479
achter	-12.248
ierbar	-12.248
df	-12.248
▁professoren	-12.2482
▁wilhelmshaven	-12.2483
▁taler	-12.2483
▁munition	-12.2485
▁feinde	-12.2486
programms	-12.2488
▁niedrige	-12.2489
▁pier	-12.2494
▁widmen	-12.2494
▁bienen	-12.2496
▁ruhm	-12.2496
▁abschließend	-12.2497
▁barry	-12.2497
▁fortgeführt	-12.2497
▁sala	-12.2497
kontakt	-12.2498
▁jay	-12.25
▁oberhausen	-12.2502
▁demokratisch	-12.2502
anspruch	-12.2503
▁herrschafts	-12.2503
▁annahm	-12.2504
▁moralische	-12.2505
▁materielle	-12.2505
▁zirka	-12.2506
▁wolfram	-12.2507
▁24-	-12.2508
▁zinn	-12.2508
▁befunden	-12.251
▁margarete	-12.251
enthal	-12.2511
▁fortschritt	-12.2512
kapitel	-12.2514
wähl	-12.2516
▁effekte	-12.2517
[...]
